<unk>	0
<s>	0
</s>	0
<SEP>	0
<CLS>	0
\n	0
\t	0
\r	0
0	0
1	0
2	0
3	0
4	0
5	0
6	0
7	0
8	0
9	0
\uff10	0
\uff11	0
\uff12	0
\uff13	0
\uff14	0
\uff15	0
\uff16	0
\uff17	0
\uff18	0
\uff19	0
\uff0c	0
\u3002	0
\uff01	0
\uff1f	0
\u3001	0
\uff1a	0
\uffe5	0
.	0
!	0
?	0
\u300a	0
\u300b	0
\u3010	0
\u3011	0
\u300e	0
\u300f	0
```	0
<!--	0
-->	0
---	0
<!DOCTYPE>	0
\uff1b	0
\uff0e	0
\uff1d	0
\uff1c	0
\uff1e	0
\uff0d	0
\uff0b	0
\uff05	0
\u203c	0
\u32a3	0
\uff0f	0
\uff5c	0
[商品]	0
[图]	0
[视频]	0
[链接]	0
~	0
\uff5e	0
<|im_start|>	0
<|im_end|>	0
<|end_of_text|>	0
<|image_start|>	0
<|image_end|>	0
<|system|>	0
<|user|>	0
<|assistant|>	0
<|robot|>	0
<|tool_call_start|>	0
<|tool_call_end|>	0
<|tool_response_start|>	0
<|tool_response_end|>	0
▁▁	0
▁▁▁▁	0
▁▁▁▁▁▁▁▁	0
▁▁▁▁▁▁▁▁▁▁▁▁▁▁▁▁	0
▁▁▁▁▁▁▁▁▁▁▁▁▁▁▁▁▁▁▁▁▁▁▁▁▁▁▁▁▁▁▁▁	0
▁▁▁▁▁▁▁▁▁▁▁▁▁▁▁▁▁▁▁▁▁▁▁▁▁▁▁▁▁▁▁▁▁▁▁▁▁▁▁▁▁▁▁▁▁▁▁▁▁▁▁▁▁▁▁▁▁▁▁▁▁▁▁▁	0
<reserved_0>	0
<reserved_1>	0
<reserved_2>	0
<reserved_3>	0
<reserved_4>	0
<reserved_5>	0
<reserved_6>	0
<reserved_7>	0
<reserved_8>	0
<reserved_9>	0
<reserved_10>	0
<reserved_11>	0
<reserved_12>	0
<reserved_13>	0
<reserved_14>	0
<reserved_15>	0
<reserved_16>	0
<reserved_17>	0
<reserved_18>	0
<reserved_19>	0
<0x00>	0
<0x01>	0
<0x02>	0
<0x03>	0
<0x04>	0
<0x05>	0
<0x06>	0
<0x07>	0
<0x08>	0
<0x09>	0
<0x0A>	0
<0x0B>	0
<0x0C>	0
<0x0D>	0
<0x0E>	0
<0x0F>	0
<0x10>	0
<0x11>	0
<0x12>	0
<0x13>	0
<0x14>	0
<0x15>	0
<0x16>	0
<0x17>	0
<0x18>	0
<0x19>	0
<0x1A>	0
<0x1B>	0
<0x1C>	0
<0x1D>	0
<0x1E>	0
<0x1F>	0
<0x20>	0
<0x21>	0
<0x22>	0
<0x23>	0
<0x24>	0
<0x25>	0
<0x26>	0
<0x27>	0
<0x28>	0
<0x29>	0
<0x2A>	0
<0x2B>	0
<0x2C>	0
<0x2D>	0
<0x2E>	0
<0x2F>	0
<0x30>	0
<0x31>	0
<0x32>	0
<0x33>	0
<0x34>	0
<0x35>	0
<0x36>	0
<0x37>	0
<0x38>	0
<0x39>	0
<0x3A>	0
<0x3B>	0
<0x3C>	0
<0x3D>	0
<0x3E>	0
<0x3F>	0
<0x40>	0
<0x41>	0
<0x42>	0
<0x43>	0
<0x44>	0
<0x45>	0
<0x46>	0
<0x47>	0
<0x48>	0
<0x49>	0
<0x4A>	0
<0x4B>	0
<0x4C>	0
<0x4D>	0
<0x4E>	0
<0x4F>	0
<0x50>	0
<0x51>	0
<0x52>	0
<0x53>	0
<0x54>	0
<0x55>	0
<0x56>	0
<0x57>	0
<0x58>	0
<0x59>	0
<0x5A>	0
<0x5B>	0
<0x5C>	0
<0x5D>	0
<0x5E>	0
<0x5F>	0
<0x60>	0
<0x61>	0
<0x62>	0
<0x63>	0
<0x64>	0
<0x65>	0
<0x66>	0
<0x67>	0
<0x68>	0
<0x69>	0
<0x6A>	0
<0x6B>	0
<0x6C>	0
<0x6D>	0
<0x6E>	0
<0x6F>	0
<0x70>	0
<0x71>	0
<0x72>	0
<0x73>	0
<0x74>	0
<0x75>	0
<0x76>	0
<0x77>	0
<0x78>	0
<0x79>	0
<0x7A>	0
<0x7B>	0
<0x7C>	0
<0x7D>	0
<0x7E>	0
<0x7F>	0
<0x80>	0
<0x81>	0
<0x82>	0
<0x83>	0
<0x84>	0
<0x85>	0
<0x86>	0
<0x87>	0
<0x88>	0
<0x89>	0
<0x8A>	0
<0x8B>	0
<0x8C>	0
<0x8D>	0
<0x8E>	0
<0x8F>	0
<0x90>	0
<0x91>	0
<0x92>	0
<0x93>	0
<0x94>	0
<0x95>	0
<0x96>	0
<0x97>	0
<0x98>	0
<0x99>	0
<0x9A>	0
<0x9B>	0
<0x9C>	0
<0x9D>	0
<0x9E>	0
<0x9F>	0
<0xA0>	0
<0xA1>	0
<0xA2>	0
<0xA3>	0
<0xA4>	0
<0xA5>	0
<0xA6>	0
<0xA7>	0
<0xA8>	0
<0xA9>	0
<0xAA>	0
<0xAB>	0
<0xAC>	0
<0xAD>	0
<0xAE>	0
<0xAF>	0
<0xB0>	0
<0xB1>	0
<0xB2>	0
<0xB3>	0
<0xB4>	0
<0xB5>	0
<0xB6>	0
<0xB7>	0
<0xB8>	0
<0xB9>	0
<0xBA>	0
<0xBB>	0
<0xBC>	0
<0xBD>	0
<0xBE>	0
<0xBF>	0
<0xC0>	0
<0xC1>	0
<0xC2>	0
<0xC3>	0
<0xC4>	0
<0xC5>	0
<0xC6>	0
<0xC7>	0
<0xC8>	0
<0xC9>	0
<0xCA>	0
<0xCB>	0
<0xCC>	0
<0xCD>	0
<0xCE>	0
<0xCF>	0
<0xD0>	0
<0xD1>	0
<0xD2>	0
<0xD3>	0
<0xD4>	0
<0xD5>	0
<0xD6>	0
<0xD7>	0
<0xD8>	0
<0xD9>	0
<0xDA>	0
<0xDB>	0
<0xDC>	0
<0xDD>	0
<0xDE>	0
<0xDF>	0
<0xE0>	0
<0xE1>	0
<0xE2>	0
<0xE3>	0
<0xE4>	0
<0xE5>	0
<0xE6>	0
<0xE7>	0
<0xE8>	0
<0xE9>	0
<0xEA>	0
<0xEB>	0
<0xEC>	0
<0xED>	0
<0xEE>	0
<0xEF>	0
<0xF0>	0
<0xF1>	0
<0xF2>	0
<0xF3>	0
<0xF4>	0
<0xF5>	0
<0xF6>	0
<0xF7>	0
<0xF8>	0
<0xF9>	0
<0xFA>	0
<0xFB>	0
<0xFC>	0
<0xFD>	0
<0xFE>	0
<0xFF>	0
▁	-1.63036
,	-3.74815
▁the	-4.23791
，	-4.50048
s	-4.51688
▁of	-4.75711
-	-4.804
▁and	-4.86964
▁to	-4.87978
▁a	-5.07109
▁in	-5.19373
/	-5.20909
_	-5.31925
:	-5.45269
'	-5.47724
、	-5.50588
)	-5.50676
。	-5.65966
▁(	-5.66398
▁is	-5.70751
"	-5.75736
▁that	-5.80646
▁for	-5.86126
的	-5.87138
▁I	-6.00546
t	-6.10983
▁==	-6.13726
▁on	-6.14815
i	-6.14929
	-6.22497
e	-6.22758
(	-6.2364
▁with	-6.2379
a	-6.27853
’	-6.2923
▁it	-6.31274
▁de	-6.32055
▁The	-6.33973
d	-6.34099
▁be	-6.38425
▁"	-6.39992
▁was	-6.43274
▁as	-6.4439
=	-6.47464
▁you	-6.5179
com	-6.51944
▁at	-6.5225
▁are	-6.55562
":"	-6.56952
▁by	-6.59665
;	-6.59876
A	-6.65351
://	-6.66149
▁have	-6.69135
▁from	-6.70602
▁this	-6.73115
m	-6.76508
▁or	-6.77756
▁not	-6.79935
ing	-6.81743
","	-6.84519
ed	-6.87321
]	-6.90322
▁an	-6.91784
O	-6.92202
：	-6.92763
img	-6.93112
n	-6.96447
”	-6.98189
id	-6.98908
https	-7.01786
▁will	-7.02343
▁he	-7.03074
{	-7.03659
}	-7.04333
c	-7.0554
p	-7.06069
▁we	-7.07497
end	-7.095
和	-7.09566
▁his	-7.09578
o	-7.09756
▁has	-7.11187
在	-7.11684
S	-7.1483
▁can	-7.15236
b	-7.15555
y	-7.16503
item	-7.16788
年	-7.18008
D	-7.18497
▁but	-7.18639
x	-7.20748
re	-7.23488
▁[	-7.24716
er	-7.2501
“	-7.25198
▁they	-7.25337
▁all	-7.25716
！	-7.28202
+	-7.29435
▁their	-7.3245
（	-7.32644
r	-7.33693
▁one	-7.35793
▁more	-7.37259
&	-7.37484
es	-7.37583
▁which	-7.37603
C	-7.37635
哦	-7.38178
en	-7.38424
▁A	-7.39781
E	-7.39826
▁your	-7.40375
是	-7.41006
▁$	-7.41158
▁about	-7.41596
）	-7.43116
の	-7.43388
u	-7.44835
了	-7.45644
▁who	-7.4589
in	-7.45926
f	-7.45965
▁--	-7.4822
\	-7.48474
>	-7.49008
▁la	-7.49271
option	-7.4995
▁had	-7.51598
▁In	-7.5163
▁“	-7.52091
I	-7.52164
taobao	-7.52417
▁do	-7.52573
==	-7.53024
▁my	-7.5354
亲	-7.53555
),	-7.54135
B	-7.54628
extra	-7.56882
▁were	-7.57538
▁so	-7.57742
▁if	-7.58294
k	-7.59752
▁been	-7.59948
CN	-7.60397
▁out	-7.60566
？	-7.60768
▁на	-7.60896
▁would	-7.61669
htm	-7.62108
】	-7.62198
alicdn	-7.63263
ly	-7.63369
$	-7.63403
▁said	-7.65977
L	-7.66333
▁paragraph	-7.67141
v	-7.67744
[	-7.67799
▁\	-7.68252
▁It	-7.68422
▁up	-7.68885
wyc	-7.69603
▁time	-7.70281
▁also	-7.72137
▁there	-7.72562
▁our	-7.73345
；	-7.73361
h	-7.73889
▁other	-7.73966
▁her	-7.74537
▁when	-7.7473
▁what	-7.7538
q	-7.75906
中	-7.77334
al	-7.77428
月	-7.77782
▁в	-7.77981
▁no	-7.80731
g	-7.81664
F	-7.81832
%	-7.82734
▁than	-7.83471
▁me	-7.83537
有	-7.85213
▁like	-7.85321
l	-7.87381
ampmedia	-7.87632
▁He	-7.87694
P	-7.88419
▁people	-7.887
▁some	-7.89233
为	-7.9023
ve	-7.90709
▁{"	-7.91115
亲亲	-7.91348
"	-7.91369
▁just	-7.92297
/:	-7.92513
z	-7.92601
 	-7.93339
▁them	-7.93682
▁new	-7.94162
▁|	-7.9424
▁This	-7.94414
▁=	-7.94476
▁first	-7.94797
\"	-7.95579
▁its	-7.95844
▁any	-7.959
不	-7.96005
▁into	-7.96727
人	-7.96821
""	-7.97758
а	-7.9934
上	-7.9959
detail	-7.99994
j	-8.00379
or	-8.00782
▁over	-8.00905
▁un	-8.01455
与	-8.01544
":"","	-8.02687
▁【	-8.02933
T	-8.04142
▁only	-8.04333
и	-8.04372
等	-8.04372
▁two	-8.0485
▁en	-8.04859
大	-8.05389
日	-8.06302
▁في	-8.07194
to	-8.07383
▁get	-8.07429
th	-8.07704
▁may	-8.08567
▁she	-8.0869
▁years	-8.10731
▁We	-8.11512
▁di	-8.12304
呢	-8.12698
"}	-8.13196
▁и	-8.13307
▁ال	-8.13468
对	-8.13926
Y	-8.14068
on	-8.15227
を	-8.15535
de	-8.15664
*	-8.16034
trade	-8.16284
The	-8.16843
،	-8.17266
,"	-8.18092
▁how	-8.19471
H	-8.20332
▁him	-8.20596
an	-8.20948
▁most	-8.2156
▁work	-8.22643
一	-8.22824
▁l	-8.23049
type	-8.23337
|	-8.23418
▁–	-8.2348
M	-8.23834
w	-8.23842
▁year	-8.23879
は	-8.24013
▁make	-8.24458
▁then	-8.24942
▁these	-8.2525
X	-8.25345
▁after	-8.2551
▁could	-8.26764
・	-8.27562
に	-8.27647
▁such	-8.28195
▁because	-8.28578
▁where	-8.29471
G	-8.29761
N	-8.30171
▁very	-8.30179
answer	-8.30434
▁many	-8.30505
is	-8.30611
▁well	-8.30625
▁know	-8.30631
家	-8.30795
us	-8.31985
R	-8.32491
▁per	-8.33014
▁U	-8.34108
":	-8.34215
▁should	-8.34927
의	-8.3514
▁now	-8.35294
▁way	-8.36178
png	-8.36281
jpg	-8.36634
▁don	-8.3727
▁think	-8.37484
man	-8.37893
content	-8.3824
▁use	-8.38245
▁through	-8.38738
▁<	-8.39296
▁If	-8.39552
K	-8.39658
ة	-8.40532
が	-8.40749
▁see	-8.40855
ar	-8.41257
▁But	-8.41293
▁those	-8.41383
▁And	-8.41639
▁New	-8.41935
="	-8.42508
▁el	-8.42575
ml	-8.43422
▁much	-8.43449
▁good	-8.43621
用	-8.45142
后	-8.45217
ll	-8.45693
▁being	-8.46348
▁del	-8.46436
我	-8.4651
▁back	-8.46574
);	-8.46749
到	-8.46872
▁even	-8.46957
▁S	-8.47056
▁{	-8.47409
te	-8.47471
．	-8.48943
▁You	-8.49106
▁made	-8.4938
时	-8.49721
W	-8.4992
下	-8.49931
会	-8.50942
V	-8.51647
小	-8.51729
▁REDIRECT	-8.52339
▁For	-8.52381
le	-8.52675
▁от	-8.52754
at	-8.52887
▁before	-8.53275
元	-8.53727
▁*	-8.53929
将	-8.54124
▁need	-8.54232
Z	-8.54387
▁&	-8.55081
▁De	-8.55517
可以	-8.55772
服务	-8.55913
▁last	-8.56527
and	-8.56911
mp	-8.56945
▁under	-8.57669
▁here	-8.57898
da	-8.58215
—	-8.5866
▁am	-8.58719
е	-8.58808
==	-8.59645
▁van	-8.59746
▁us	-8.59799
the	-8.60023
▁As	-8.6043
▁que	-8.60496
ers	-8.60543
▁part	-8.61006
▁same	-8.6102
▁#	-8.61225
水	-8.61347
т	-8.61362
na	-8.61381
▁want	-8.61588
▁right	-8.61777
以	-8.61779
video	-8.62016
也	-8.62353
<	-8.62367
▁===	-8.62443
▁take	-8.62741
▁der	-8.63449
▁go	-8.63769
▁did	-8.63976
▁life	-8.64066
▁world	-8.65321
新	-8.65337
о	-8.65646
▁information	-8.65833
▁going	-8.66412
data	-8.66801
就	-8.67146
《	-8.67607
▁So	-8.67664
保	-8.67787
it	-8.68014
–	-8.68339
性	-8.68396
要	-8.68597
as	-8.68626
▁three	-8.68814
на	-8.69071
▁day	-8.69428
▁used	-8.6948
el	-8.69553
able	-8.69724
main	-8.69776
ne	-8.69865
地	-8.69873
快递	-8.70966
이	-8.71048
▁still	-8.71352
▁while	-8.71814
▁between	-8.72725
▁really	-8.72748
功能	-8.73059
高	-8.73189
出	-8.73882
》	-8.74192
▁C	-8.74454
▁home	-8.74805
ا	-8.74824
▁each	-8.7498
Phttp	-8.7526
▁great	-8.75283
▁both	-8.75489
而	-8.75603
▁من	-8.76089
▁public	-8.76387
三	-8.76502
▁down	-8.76615
▁long	-8.76805
【	-8.77142
▁help	-8.77205
)	-8.77319
▁et	-8.77545
un	-8.77606
▁say	-8.77671
**	-8.78162
子	-8.78193
os	-8.78308
no	-8.78314
▁с	-8.78363
▁own	-8.78373
▁M	-8.78737
好	-8.78896
分	-8.79215
▁To	-8.79631
可	-8.7985
▁state	-8.79977
你	-8.80085
▁за	-8.80293
J	-8.80334
您	-8.80348
这款	-8.80764
ans	-8.80823
多	-8.80893
▁They	-8.80901
▁best	-8.80973
及	-8.81241
^	-8.81525
▁There	-8.81722
收货时	-8.81724
▁B	-8.81738
▁des	-8.81899
市	-8.82214
▁set	-8.82217
Q	-8.8234
▁University	-8.82412
--	-8.8279
从	-8.82916
来	-8.82992
년	-8.8307
请检查	-8.83198
再签收	-8.83248
当场验货确认无误后	-8.83251
派件了	-8.83252
您的快递已经	-8.83254
的外包装是否完整	-8.83254
进行	-8.83634
▁La	-8.8401
▁during	-8.84819
▁No	-8.84841
▁T	-8.84998
ia	-8.8585
에	-8.85923
で	-8.86174
と	-8.86335
都	-8.86542
U	-8.86582
能	-8.86743
▁bar	-8.87156
▁must	-8.87194
▁does	-8.87431
if	-8.87481
",	-8.8767
▁find	-8.8769
点	-8.87698
▁She	-8.87714
▁по	-8.87783
产品	-8.87839
​​	-8.88725
容量	-8.88963
▁number	-8.89475
ation	-8.89484
▁—	-8.89571
▁off	-8.8964
amp	-8.89656
中国	-8.89829
,”	-8.89862
▁come	-8.89867
起	-8.90009
se	-8.90091
▁P	-8.90412
та	-8.90961
▁е	-8.91028
使用	-8.91233
我们	-8.91276
或	-8.91572
▁L	-8.91635
▁since	-8.91711
_{	-8.91856
▁against	-8.92319
▁und	-8.9238
을	-8.9253
▁things	-8.92625
ist	-8.92756
▁around	-8.92962
▁every	-8.93026
…	-8.93489
▁school	-8.93619
▁team	-8.93654
▁different	-8.93737
工作	-8.93787
#	-8.93955
▁That	-8.94274
并	-8.9444
▁place	-8.9506
()	-8.95092
▁high	-8.95158
la	-8.95306
가	-8.95449
这	-8.95507
major	-8.95517
http	-8.95595
▁says	-8.95679
于	-8.95976
▁system	-8.95988
▁game	-8.96022
▁too	-8.96056
ي	-8.96087
▁case	-8.96235
li	-8.97112
区	-8.97449
▁found	-8.97523
я	-8.97707
ma	-8.97832
▁never	-8.97849
▁including	-8.98018
预约	-8.98131
▁another	-8.98154
message	-8.98522
被	-8.98554
std	-8.98574
line	-8.98764
grade	-8.98766
公司	-8.98939
▁du	-8.99096
▁State	-8.99332
内	-8.99364
ta	-8.99501
▁class	-8.99543
shop	-8.99566
▁family	-8.99669
▁little	-8.99738
▁Re	-8.99959
ge	-8.99959
me	-9.00083
破壁机	-9.00172
▁without	-9.00278
▁something	-9.00353
am	-9.00603
着	-9.00611
天	-9.00621
他	-9.01018
清	-9.01026
吗	-9.01037
·	-9.0109
到货后	-9.01097
▁est	-9.01421
▁American	-9.01637
体	-9.01685
▁few	-9.01789
全国联保	-9.01992
▁second	-9.02285
st	-9.02506
ment	-9.02618
www	-9.02774
▁R	-9.0281
▁program	-9.02889
▁business	-9.03178
ca	-9.03221
et	-9.03245
▁using	-9.03386
▁What	-9.03397
::	-9.03628
▁All	-9.04157
`	-9.04385
ية	-9.04575
前	-9.04622
▁might	-9.05108
▁перенаправление	-9.05144
▁better	-9.053
у	-9.05362
▁name	-9.0546
之	-9.05795
▁G	-9.05796
果蔬汁	-9.05807
up	-9.05951
▁next	-9.05966
play	-9.06236
est	-9.06675
一个	-9.06688
ic	-9.07419
cloud	-9.07678
号	-9.07752
▁children	-9.0776
没有	-9.08041
无	-9.0811
ch	-9.08251
▁les	-9.08495
▁On	-9.08759
м	-9.08947
но	-9.09105
▁students	-9.09265
▁تحويل	-9.09395
这个	-9.09403
는	-9.09609
个	-9.09674
本	-9.09739
所	-9.09743
▁always	-9.09771
▁United	-9.09832
▁va	-9.10214
价	-9.10325
▁се	-9.10421
▁look	-9.10441
▁J	-9.10754
))	-9.10906
biz	-9.1129
▁When	-9.1138
需要	-9.11417
▁F	-9.11462
get	-9.11509
山	-9.11855
be	-9.11886
名	-9.11918
▁show	-9.12046
▁lot	-9.12182
好物推荐	-9.12235
▁een	-9.12476
ity	-9.12741
▁government	-9.12817
企业	-9.12847
은	-9.12866
co	-9.12918
▁got	-9.12949
▁million	-9.13143
▁@	-9.1323
不错的哦	-9.13301
um	-9.13464
者	-9.13622
机	-9.13699
▁support	-9.13883
▁May	-9.13905
长	-9.1397
ни	-9.13975
▁By	-9.14075
ات	-9.14101
son	-9.14205
▁N	-9.14454
但	-9.14489
▁person	-9.1451
</	-9.14519
▁data	-9.14712
热销款	-9.14849
用户反馈整体	-9.14855
这款是咱们	-9.14856
é	-9.14945
清洗	-9.14991
▁point	-9.15025
▁God	-9.15105
@	-9.15984
▁St	-9.16032
▁una	-9.16226
▁season	-9.16425
д	-9.16453
▁John	-9.16608
of	-9.16697
说	-9.16879
▁care	-9.16939
▁important	-9.17021
▁و	-9.17126
ton	-9.17415
向	-9.17873
ter	-9.18141
行	-9.18467
ه	-9.18487
▁At	-9.185
ro	-9.18567
▁York	-9.1857
▁company	-9.1879
->	-9.19028
ten	-9.19043
一机多用	-9.19047
set	-9.19134
с	-9.19262
▁love	-9.19269
à	-9.19308
？/:	-9.19329
生	-9.19525
▁le	-9.19833
化	-9.19869
keypoint	-9.20131
车	-9.20231
▁put	-9.2044
do	-9.20472
打	-9.20686
▁book	-9.20694
ion	-9.20712
ra	-9.20739
▁El	-9.20808
।	-9.20981
▁free	-9.21104
▁local	-9.2125
▁health	-9.21349
▁again	-9.21628
We	-9.21653
如	-9.21716
通过	-9.21837
▁man	-9.22002
ir	-9.22227
转	-9.22235
奶昔	-9.2235
」	-9.23527
▁change	-9.23597
去	-9.23751
▁country	-9.23928
▁National	-9.24069
л	-9.2408
▁States	-9.24184
▁law	-9.24203
▁give	-9.24226
▁available	-9.24231
还	-9.24432
ke	-9.24753
「	-9.24806
н	-9.24825
发	-9.24862
In	-9.2497
ка	-9.25007
land	-9.2513
▁An	-9.25255
▁return	-9.25283
▁four	-9.25571
▁April	-9.25644
▁$\	-9.2567
▁م	-9.25701
▁«	-9.25907
ler	-9.2602
▁het	-9.26183
自	-9.2645
其	-9.26509
▁K	-9.26521
▁didn	-9.26849
▁thing	-9.27135
▁service	-9.27339
力	-9.274
▁al	-9.27445
로	-9.27591
�	-9.27689
int	-9.27847
▁В	-9.28011
▁door	-9.28092
九阳	-9.28107
▁week	-9.28188
It	-9.282
喜欢带走哈	-9.28225
▁My	-9.28318
▁group	-9.28367
org	-9.28724
由	-9.28777
ce	-9.29036
ant	-9.29182
▁women	-9.29276
ie	-9.29302
ت	-9.29347
il	-9.29376
里	-9.29467
▁non	-9.29599
就是	-9.29758
文	-9.29826
name	-9.29932
电器类	-9.30035
em	-9.30069
out	-9.30198
▁why	-9.30294
ka	-9.30304
心	-9.30504
▁„	-9.30561
收到商品	-9.30635
再得一	-9.30668
天内及时	-9.30669
绑定激活生效可	-9.30673
操作完成共两年哦	-9.30679
年延保	-9.30699
免过滤	-9.30718
▁within	-9.30809
金	-9.30822
▁days	-9.30849
▁full	-9.30962
▁bir	-9.31004
国	-9.31064
部	-9.31112
▁course	-9.31153
▁fact	-9.3132
下单质	-9.31321
/:^	-9.31386
»	-9.31633
">	-9.31737
▁today	-9.31964
х	-9.32119
▁until	-9.32176
玉米汁	-9.32257
▁came	-9.32383
den	-9.32391
▁money	-9.32433
▁process	-9.32466
法	-9.3253
к	-9.3258
时间	-9.32612
▁top	-9.32683
手	-9.32721
▁real	-9.32774
Krs	-9.32831
▁men	-9.32862
二	-9.33068
▁called	-9.33075
搅拌	-9.33111
成	-9.33186
▁die	-9.33281
▁order	-9.3336
电饭煲	-9.335
▁film	-9.33549
▁working	-9.33566
▁following	-9.33612
▁away	-9.33642
▁research	-9.3373
过	-9.33737
操作视频	-9.33797
▁read	-9.3397
▁sure	-9.33987
▁start	-9.34403
▁provide	-9.3473
time	-9.3494
管理	-9.34998
学	-9.35041
した	-9.35154
▁One	-9.35203
▁percent	-9.35246
}{	-9.35281
▁dan	-9.35302
й	-9.35392
花	-9.35528
▁least	-9.35567
▁community	-9.35626
▁far	-9.35687
▁March	-9.35798
//	-9.3583
全	-9.35868
开	-9.36021
。/:	-9.3606
то	-9.36087
 【	-9.36165
▁small	-9.36186
▁done	-9.36206
具体操作流程	-9.36323
联系我们获取	-9.36338
自己	-9.36625
最	-9.36901
▁past	-9.36915
看	-9.36991
▁open	-9.37018
▁left	-9.37057
▁yang	-9.37136
▁experience	-9.37143
per	-9.37209
活动	-9.37229
▁power	-9.37422
▁da	-9.37485
王	-9.37539
浓汤	-9.37631
▁post	-9.37737
▁having	-9.3776
▁run	-9.3777
ja	-9.37841
▁services	-9.38095
▁von	-9.38317
ting	-9.38518
ni	-9.3852
技术	-9.38535
ness	-9.38591
做	-9.38606
year	-9.38645
万	-9.3867
ism	-9.38972
▁water	-9.39044
▁problem	-9.39157
发展	-9.39179
】，	-9.39218
更	-9.39219
外	-9.39436
四	-9.39537
路	-9.39598
适合	-9.39714
▁Center	-9.39852
炖煮	-9.40146
绵粥	-9.40366
▁pre	-9.40401
▁shall	-9.40438
▁Al	-9.40525
ent	-9.40654
г	-9.4073
▁given	-9.40872
▁though	-9.40882
し	-9.40903
▁Do	-9.41074
▁W	-9.41094
지	-9.41201
한	-9.41293
고	-9.41327
得	-9.41337
ya	-9.4134
▁old	-9.41393
▁‘	-9.41395
в	-9.41587
те	-9.41638
该	-9.41721
▁several	-9.4175
把	-9.41774
海	-9.41915
▁se	-9.4201
▁à	-9.42053
▁value	-9.42337
begin	-9.42352
lar	-9.42368
▁history	-9.42436
▁City	-9.4257
▁area	-9.42687
▁doesn	-9.42802
再	-9.42989
{\	-9.43026
▁World	-9.43111
▁war	-9.43277
▁Mr	-9.43486
▁went	-9.43513
让	-9.43519
▁making	-9.43587
▁story	-9.43619
▁con	-9.43651
▁/:-	-9.43688
age	-9.4373
lo	-9.4378
▁let	-9.4387
ul	-9.43968
▁keep	-9.44199
▁often	-9.44313
by	-9.44348
▁enough	-9.44365
를	-9.44423
▁become	-9.44481
▁won	-9.44498
list	-9.44537
▁School	-9.44547
("	-9.44584
▁already	-9.44602
▁believe	-9.4462
▁H	-9.44877
au	-9.45081
磨	-9.45112
如果	-9.45499
▁feel	-9.45588
nbsp	-9.45621
▁times	-9.45684
▁//	-9.45763
杂粮糊	-9.45924
醇豆浆	-9.45924
▁im	-9.45939
▁thought	-9.45941
не	-9.45982
msg	-9.46097
光	-9.46146
▁members	-9.4618
面	-9.46278
ratio	-9.46295
▁County	-9.46299
ad	-9.46311
问题	-9.46424
▁possible	-9.46436
▁How	-9.4658
根据	-9.46619
리	-9.46634
▁Le	-9.46699
▁ever	-9.46724
▁include	-9.46794
인	-9.46814
▁With	-9.46858
线	-9.46958
for	-9.47088
ス	-9.47192
选择	-9.47242
事	-9.47256
ry	-9.47381
▁hard	-9.47438
系统	-9.47473
▁ve	-9.47516
ً	-9.47545
▁June	-9.47883
美	-9.48044
OrderId	-9.48049
▁查看订单	-9.48105
},	-9.48138
one	-9.48324
▁example	-9.48393
数	-9.48458
▁After	-9.48538
▁US	-9.48603
men	-9.48637
▁His	-9.48793
满意的话	-9.48799
如果对本次	-9.48826
麻烦亲在	-9.48836
评价客服	-9.4884
tr	-9.48933
▁later	-9.49151
所以	-9.49206
比	-9.49386
▁five	-9.495
提供	-9.49587
信息	-9.49612
道	-9.49614
式	-9.49623
▁call	-9.49632
重	-9.49816
▁Dr	-9.4982
▁doing	-9.49958
▁big	-9.49972
▁means	-9.50046
▁الم	-9.50107
▁took	-9.50152
加	-9.50292
▁г	-9.50409
第	-9.50561
头	-9.50689
key	-9.50782
好的	-9.50825
网	-9.50981
▁others	-9.51021
▁whether	-9.51028
Name	-9.51257
▁January	-9.51447
全国	-9.51486
▁early	-9.51644
▁President	-9.5171
▁play	-9.51773
▁less	-9.51836
满意	-9.51956
im	-9.5196
min	-9.52113
▁site	-9.52175
ian	-9.52218
▁told	-9.52263
要求	-9.52292
di	-9.52634
▁ب	-9.52694
기	-9.52802
当	-9.52807
安全	-9.52816
▁亲亲	-9.52838
▁else	-9.53138
▁America	-9.53251
▁together	-9.53265
▁July	-9.53428
▁large	-9.53546
▁из	-9.5362
风	-9.53651
量	-9.53724
ada	-9.5397
ary	-9.53972
▁future	-9.54091
ur	-9.54202
사	-9.5426
市场	-9.54331
▁kind	-9.54511
▁uit	-9.54649
因为	-9.54699
▁line	-9.54706
left	-9.54755
至	-9.54774
又	-9.54939
ine	-9.5501
收到	-9.55038
▁News	-9.55053
"\	-9.55071
و	-9.55178
设计	-9.55222
go	-9.55413
less	-9.55615
给	-9.55728
ha	-9.55756
项目	-9.55825
▁general	-9.55971
西	-9.56135
▁amb	-9.56202
▁live	-9.56324
▁city	-9.56329
同	-9.56334
▁However	-9.56342
mo	-9.56423
▁Be	-9.56431
ley	-9.56458
▁September	-9.56465
▁night	-9.56473
▁music	-9.56496
▁result	-9.56553
张	-9.56568
ها	-9.56574
▁question	-9.56752
▁pm	-9.56802
正	-9.56849
▁En	-9.56989
▁list	-9.57013
▁yet	-9.57129
도	-9.57463
ling	-9.57636
ен	-9.57752
일	-9.57765
va	-9.57772
▁known	-9.57848
国家	-9.57981
KrwP	-9.58019
入	-9.58051
▁current	-9.58093
▁social	-9.58119
都是	-9.58122
▁actually	-9.58146
ty	-9.58155
教育	-9.58186
▁development	-9.5819
he	-9.58203
▁plan	-9.58307
特	-9.58329
▁project	-9.58601
ef	-9.58602
▁के	-9.58641
▁November	-9.58701
安	-9.5882
▁August	-9.58911
▁upon	-9.59099
▁job	-9.59303
▁study	-9.59445
▁hand	-9.59843
old	-9.59897
▁human	-9.59901
已	-9.59933
TVs	-9.5999
▁once	-9.60103
明	-9.60179
▁among	-9.60382
▁form	-9.60399
气	-9.60474
▁Co	-9.60475
ate	-9.60648
▁child	-9.60685
两	-9.60697
ner	-9.60769
局	-9.6082
▁issue	-9.60875
▁These	-9.61005
der	-9.61035
ы	-9.61042
rs	-9.61044
▁voor	-9.61172
价格	-9.61193
ive	-9.61204
い	-9.61207
▁San	-9.61219
에서	-9.61244
OGi	-9.61286
笑脸的	-9.61336
点亮下	-9.61339
最后一个大	-9.61347
点亮以后也是可以继续为您服务的哦	-9.61354
▁looking	-9.61505
回	-9.61668
ho	-9.61703
以及	-9.61838
न	-9.61873
南	-9.61885
．","	-9.61888
▁December	-9.61924
▁based	-9.61995
▁report	-9.62054
▁along	-9.62128
位	-9.6214
스	-9.62327
▁seen	-9.62343
▁market	-9.62393
▁young	-9.62443
▁Department	-9.62575
县	-9.62894
度	-9.62917
▁PM	-9.62921
▁able	-9.62991
解	-9.63104
▁car	-9.63113
ri	-9.63125
▁October	-9.63144
▁true	-9.63216
ak	-9.63427
▁=>	-9.63519
视频	-9.63553
▁try	-9.63636
▁side	-9.63655
使	-9.63707
▁getting	-9.63713
期	-9.63825
细腻研磨	-9.6388
▁par	-9.639
‌	-9.63966
▁level	-9.64128
五	-9.64215
label	-9.64348
高性价比	-9.64367
▁self	-9.64381
mm	-9.64681
▁function	-9.64746
▁Act	-9.64773
Type	-9.6491
▁dans	-9.64918
▁file	-9.65049
▁months	-9.65078
城	-9.65164
不能	-9.65214
ung	-9.65277
活动来袭	-9.65566
口感顺滑	-9.65585
日常价	-9.6559
店铺爆款	-9.6559
低音破壁机	-9.65593
免煮	-9.656
百亿补贴抢	-9.65604
料理干	-9.6561
养生热饮	-9.6561
！！/	-9.6567
但是	-9.65739
자	-9.65754
▁College	-9.6585
平	-9.65867
ш	-9.65934
热	-9.65965
ba	-9.65985
ва	-9.66016
定	-9.66026
▁ago	-9.66032
▁final	-9.6607
购到手	-9.66079
型	-9.66186
▁member	-9.66189
那	-9.66292
▁Home	-9.66302
▁familie	-9.66405
▁Me	-9.66552
▁С	-9.66636
▁North	-9.66719
▁pay	-9.6674
学习	-9.66765
建设	-9.66817
ext	-9.66904
▁education	-9.67242
参数	-9.67255
io	-9.67294
▁anything	-9.67328
▁head	-9.67385
▁control	-9.67415
xjS	-9.67479
р	-9.67509
▁games	-9.67671
▁makes	-9.67749
很	-9.67789
▁http	-9.67802
带	-9.67813
html	-9.67846
▁points	-9.67891
▁either	-9.67962
』	-9.68014
▁needs	-9.68058
爽冷饮	-9.68149
已经	-9.68191
买家购买	-9.68223
不知道是什么原因您没有	-9.68243
gen	-9.68244
同一时间很多	-9.68244
级	-9.68268
红	-9.68306
管	-9.68334
他们	-9.68397
п	-9.68529
▁event	-9.68535
书	-9.68571
方	-9.68589
ga	-9.68609
▁->	-9.68614
ли	-9.68621
还是	-9.68625
시	-9.68641
▁national	-9.68641
▁February	-9.68681
设备	-9.68717
生活	-9.6872
白	-9.69073
材质	-9.69091
}}	-9.69284
器	-9.69471
▁House	-9.69478
▁held	-9.69517
bo	-9.6954
哈	-9.69553
▁els	-9.69604
▁present	-9.69653
▁●	-9.69704
▁series	-9.6974
▁issues	-9.6975
م	-9.69861
▁total	-9.69978
si	-9.70042
▁single	-9.70152
▁cost	-9.70178
应	-9.70295
文化	-9.70329
原	-9.70383
▁access	-9.705
ó	-9.70535
▁tell	-9.70586
이다	-9.70656
▁whole	-9.70694
▁someone	-9.70902
▁West	-9.70964
口	-9.70982
▁third	-9.7099
天无理由	-9.71121
▁across	-9.71337
ti	-9.71387
mer	-9.71458
单	-9.71528
let	-9.71591
bar	-9.71609
▁started	-9.71617
▁une	-9.71657
▁South	-9.7168
各	-9.71708
▁above	-9.71741
▁V	-9.71842
▁court	-9.72067
する	-9.72206
ver	-9.72283
制	-9.72299
村	-9.72415
▁Now	-9.72573
ted	-9.72578
德	-9.72639
다	-9.72674
과	-9.72755
▁record	-9.72806
▁due	-9.72877
):	-9.72888
ون	-9.7289
▁half	-9.72894
▁understand	-9.72987
干	-9.72996
老	-9.73003
▁idea	-9.7301
科技	-9.73023
中心	-9.731
frac	-9.73219
char	-9.7333
kan	-9.7335
▁X	-9.73406
▁co	-9.73659
请	-9.73962
果汁	-9.7398
门	-9.74083
具有	-9.74085
ки	-9.74086
spm	-9.74222
ac	-9.74323
次	-9.74402
▁soort	-9.74405
ID	-9.74539
▁short	-9.74612
ko	-9.74676
▁naam	-9.74683
没有下单	-9.74694
看您还	-9.74694
李	-9.74771
으로	-9.7482
主	-9.7487
​​"	-9.75104
▁taken	-9.75111
它	-9.75128
text	-9.7524
▁trying	-9.75471
||	-9.75539
▁Obama	-9.75558
▁received	-9.75573
op	-9.75594
田	-9.75607
大学	-9.75634
▁death	-9.75641
mu	-9.75704
物	-9.75721
▁online	-9.75741
net	-9.75823
▁field	-9.7587
FZ	-9.75959
▁food	-9.7597
 —	-9.76009
先	-9.76048
all	-9.76071
▁rights	-9.76146
对于	-9.7615
▁create	-9.76167
▁nothing	-9.76172
▁body	-9.76192
刀头	-9.76214
ия	-9.76287
▁gepubliceerd	-9.76374
▁asked	-9.76378
▁Or	-9.76412
内容	-9.76672
平台	-9.76736
克	-9.76771
▁rest	-9.76786
。"}	-9.76809
hi	-9.76817
▁More	-9.77028
▁period	-9.77131
To	-9.77142
▁mean	-9.77193
咱们	-9.77333
hd	-9.77349
▁personal	-9.77414
▁special	-9.77447
▁house	-9.77455
她	-9.77457
Energy	-9.77474
因此	-9.77487
gi	-9.77518
}\	-9.77519
▁على	-9.77548
▁Posted	-9.77561
▁reason	-9.77612
▁Washington	-9.77614
▁да	-9.77627
请确认收货地址	-9.77631
通	-9.77698
lang	-9.77764
sh	-9.7788
tenschappelijke	-9.77914
ci	-9.77927
▁test	-9.77934
ze	-9.77969
吧	-9.78018
▁rather	-9.78043
▁je	-9.7805
低	-9.78067
冷饮	-9.78072
马	-9.78105
も	-9.78136
▁model	-9.78158
共	-9.78169
▁results	-9.78198
也是	-9.78198
▁mind	-9.78324
code	-9.78431
▁Mar	-9.785
▁sense	-9.78527
下单呢	-9.78585
▁Court	-9.78842
▁War	-9.78935
▁és	-9.78964
ال	-9.79141
▁matter	-9.7916
ко	-9.79207
▁bit	-9.79221
▁comes	-9.79309
▁tax	-9.79326
大容量	-9.79334
▁provided	-9.79452
▁six	-9.79607
▁however	-9.7973
res	-9.79734
▁sub	-9.79771
图	-9.79839
世界	-9.79944
想	-9.80153
▁subject	-9.80185
length	-9.80187
▁career	-9.8038
▁almost	-9.80411
어	-9.80513
not	-9.80546
▁ALIH	-9.80621
▁probably	-9.80679
电	-9.80755
▁por	-9.80922
▁face	-9.80937
▁heart	-9.80942
▁close	-9.81136
故	-9.81172
相	-9.8118
▁interest	-9.81221
sr	-9.81262
作	-9.81271
▁seems	-9.81286
ов	-9.81286
ies	-9.81307
pa	-9.81379
热饮	-9.81399
var	-9.8144
▁до	-9.81515
这些	-9.81518
能力	-9.81525
KruA	-9.81602
▁friends	-9.81668
台	-9.81669
▁Pro	-9.81828
▁Our	-9.8193
北	-9.81936
▁\\	-9.8198
▁energy	-9.81992
▁required	-9.82032
He	-9.82073
}$	-9.82128
▁Energy	-9.82133
你好亲亲	-9.82194
▁при	-9.82237
pi	-9.82239
ल	-9.82322
目前	-9.82437
▁media	-9.82456
fe	-9.82463
社会	-9.82482
生产	-9.82675
机器	-9.82704
ki	-9.82747
▁eerst	-9.8284
升	-9.82875
▁move	-9.82886
▁website	-9.82921
经	-9.82955
▁certain	-9.83068
作为	-9.83096
pm	-9.83096
▁Man	-9.83307
▁Paul	-9.83377
▁David	-9.83451
que	-9.83452
í	-9.83461
▁likely	-9.8349
能够	-9.83577
▁private	-9.83645
ن	-9.83659
表示	-9.83675
▁lead	-9.83812
my	-9.83815
油	-9.83858
▁further	-9.83923
▁Some	-9.83961
xK	-9.83978
▁action	-9.84031
同时	-9.84156
▁addition	-9.84187
▁taking	-9.84269
▁student	-9.84327
立	-9.84391
主要	-9.84391
je	-9.84468
▁continue	-9.84473
▁تغییرمسیر	-9.84498
▁وال	-9.84659
可以买来试试	-9.84703
▁相信产品一定会让您满意的哦	-9.84707
经济	-9.84707
▁adalah	-9.84742
This	-9.84877
▁political	-9.84888
nt	-9.85063
▁office	-9.85106
▁While	-9.85143
▁hours	-9.85188
▁Se	-9.85266
val	-9.85266
log	-9.85299
双	-9.85327
idae	-9.85347
​​​"	-9.85442
材料	-9.85456
▁hope	-9.85607
东	-9.85621
र	-9.85631
现在	-9.85728
▁space	-9.85892
▁section	-9.85899
人使用	-9.85936
▁pro	-9.85956
▁`	-9.86039
一些	-9.8606
ight	-9.8608
ла	-9.86123
石	-9.8622
▁Mo	-9.86225
▁according	-9.86251
▁import	-9.8628
\\	-9.86308
华	-9.86503
▁Health	-9.86572
から	-9.86625
▁programs	-9.86626
▁page	-9.86662
▁former	-9.86709
『	-9.86773
YINP	-9.86809
SBwl	-9.8681
▁position	-9.86879
ol	-9.86924
▁building	-9.86984
工	-9.87005
▁cannot	-9.87057
▁everything	-9.87083
科	-9.87084
ek	-9.8709
▁quite	-9.87141
な	-9.87146
chi	-9.87173
▁أ	-9.87179
▁win	-9.87274
▁Not	-9.87295
▁works	-9.87301
▁recent	-9.87318
完成	-9.87413
ма	-9.87435
les	-9.87593
▁bad	-9.87621
强	-9.87658
월	-9.87688
方式	-9.87879
机器支持	-9.87913
拉	-9.87979
处理	-9.88019
ب	-9.88116
ang	-9.8812
▁article	-9.88217
龙	-9.88305
▁visit	-9.88356
▁role	-9.88468
利	-9.88483
行业	-9.88541
▁Per	-9.88647
▁II	-9.88777
大家	-9.88817
▁wanted	-9.88955
您的订单已经	-9.89002
学校	-9.89015
流	-9.89031
▁original	-9.89051
吃	-9.89126
温	-9.89133
爱	-9.89255
▁light	-9.89281
dir	-9.89302
林	-9.89306
▁geldig	-9.89382
▁began	-9.89465
day	-9.89501
ization	-9.89503
太	-9.89514
则	-9.89521
▁financial	-9.89535
板	-9.8964
链接	-9.89652
km	-9.89654
专业	-9.89682
we	-9.8974
煎药壶	-9.89777
球	-9.89811
▁property	-9.89838
▁companies	-9.89882
lu	-9.89896
关注	-9.89944
▁common	-9.89984
port	-9.89989
field	-9.90018
▁amount	-9.9003
▁design	-9.90117
选择题	-9.90122
▁news	-9.90166
▁policy	-9.90247
▁REDIRECTION	-9.90289
▁From	-9.90331
游戏	-9.9041
身	-9.90474
场	-9.90512
▁learn	-9.90565
app	-9.90593
га	-9.90618
▁share	-9.90721
▁problems	-9.90728
라	-9.90753
日本	-9.90888
▁clear	-9.90907
▁International	-9.90929
▁became	-9.90939
情况	-9.90987
her	-9.91087
装	-9.91214
周	-9.9122
米	-9.91237
ите	-9.91246
ated	-9.91279
based	-9.91284
▁là	-9.91299
转速	-9.91306
代	-9.91421
▁president	-9.91422
的哦	-9.91483
ju	-9.91549
▁month	-9.91626
ok	-9.91669
▁federal	-9.91671
rep	-9.91678
num	-9.91678
▁individual	-9.91748
▁risk	-9.91825
▁California	-9.91959
ж	-9.91977
开始	-9.91977
ア	-9.92025
▁Can	-9.92072
▁Q	-9.92083
▁isn	-9.92122
С	-9.92128
ُ	-9.92148
▁Friday	-9.92203
环境	-9.92291
You	-9.92293
感谢您对我们的支持	-9.92341
tor	-9.92361
")	-9.92489
cn	-9.92567
ance	-9.92616
▁में	-9.92623
성	-9.92651
क	-9.92773
▁industry	-9.92785
ence	-9.92871
▁coming	-9.92926
人员	-9.92932
感	-9.9294
▁living	-9.93034
工程	-9.93086
一键	-9.93102
ber	-9.93197
▁view	-9.93199
tion	-9.93278
ized	-9.93279
▁Church	-9.93429
药	-9.93469
▁ت	-9.93548
近	-9.93562
▁age	-9.93576
总	-9.93582
学生	-9.93599
国际	-9.93631
▁himself	-9.93648
▁worked	-9.93805
red	-9.9386
公	-9.93924
▁quality	-9.94
▁son	-9.94003
ster	-9.94012
sa	-9.94103
站	-9.94112
▁Er	-9.94197
size	-9.94241
off	-9.94441
火	-9.94458
超	-9.94472
▁First	-9.94551
▁questions	-9.9459
品牌	-9.94624
lin	-9.9465
와	-9.94669
每分钟	-9.94721
▁decision	-9.94797
▁offer	-9.94813
▁forward	-9.94822
car	-9.94823
▁deal	-9.94839
合	-9.94885
▁Your	-9.949
的时候	-9.94921
Dr	-9.94985
质量	-9.94998
▁room	-9.95001
▁international	-9.95025
▁试用后不喜欢可以退哦	-9.95177
建	-9.95186
▁products	-9.95247
▁shows	-9.95251
ous	-9.95282
so	-9.95452
▁add	-9.9547
版	-9.955
з	-9.9552
▁performance	-9.95522
星	-9.95543
▁General	-9.95593
变	-9.95601
▁ser	-9.95603
ix	-9.9569
LJ	-9.95705
vi	-9.95717
▁especially	-9.95781
▁near	-9.9579
爆款	-9.95816
说下吗	-9.95823
电机空载转速	-9.95824
ville	-9.95861
"""	-9.95888
质量问题	-9.95901
No	-9.95949
木	-9.95992
nya	-9.9608
za	-9.96084
▁training	-9.96143
生物	-9.96152
女	-9.96165
mon	-9.96168
や	-9.96195
▁increase	-9.96272
▁date	-9.96305
有什么问题都是可以咨询小客服的	-9.96317
▁staff	-9.9632
true	-9.96401
▁added	-9.96441
▁late	-9.96527
走	-9.96545
り	-9.96545
ban	-9.96546
的是	-9.96565
▁pretty	-9.96579
类	-9.96592
서	-9.96713
len	-9.96744
ny	-9.96781
▁check	-9.97002
▁low	-9.97084
да	-9.97094
江	-9.97121
▁various	-9.97124
▁version	-9.97133
不是	-9.97144
▁particular	-9.97193
不同	-9.97308
卡	-9.97382
动	-9.97427
斯	-9.97442
神	-9.97507
om	-9.97545
ين	-9.97561
进	-9.97563
align	-9.97652
▁fun	-9.97779
条	-9.97973
自己的	-9.97978
即可	-9.97979
实现	-9.97991
组织	-9.98066
▁Of	-9.98131
▁below	-9.98134
黄	-9.98199
▁events	-9.9823
队	-9.98254
▁saw	-9.98254
▁areas	-9.98289
Re	-9.98303
▁range	-9.98356
▁needed	-9.98377
▁James	-9.98391
▁са	-9.98483
ou	-9.98526
率	-9.9855
ло	-9.98612
ク	-9.98736
片	-9.98744
▁Then	-9.98769
中的	-9.9882
구	-9.9882
▁everyone	-9.9883
▁turn	-9.9887
La	-9.99124
▁bring	-9.99133
▁natural	-9.99154
ом	-9.99178
 –	-9.993
div	-9.99305
ab	-9.99345
▁AM	-9.99346
尔	-9.99346
▁dis	-9.99384
民	-9.99397
柴火饭	-9.9941
亲是什么原因没	-9.99416
天内绑定延保	-9.99418
▁terms	-9.99453
色	-9.99472
▁themselves	-9.9954
mi	-9.99581
▁similar	-9.99609
▁art	-9.99699
处	-9.99828
▁major	-9.9986
品	-9.9988
受	-9.99895
怎么	-9.99921
影响	-10.0003
▁Saturday	-10.0005
▁father	-10.0007
▁behind	-10.0007
研究	-10.0022
る	-10.0024
▁written	-10.0026
ful	-10.0028
▁ein	-10.0029
情	-10.0034
test	-10.0036
▁running	-10.0038
▁technology	-10.0039
ally	-10.0041
ut	-10.0046
非常	-10.0046
约	-10.0058
全家享	-10.0063
상	-10.0073
▁strong	-10.009
ル	-10.0093
▁talk	-10.0096
▁Here	-10.0099
分析	-10.0107
OS	-10.0108
按	-10.0115
▁simply	-10.0118
원	-10.0122
ham	-10.0128
value	-10.0146
▁easy	-10.0146
州	-10.0146
▁changes	-10.0146
▁front	-10.0148
led	-10.0158
组	-10.0162
取	-10.0171
网络	-10.0182
▁Post	-10.0184
ns	-10.0186
售后非常有保障哦	-10.0189
需要在收到货	-10.0189
这边支持	-10.0189
▁recently	-10.0189
称	-10.0195
▁higher	-10.0197
▁dels	-10.0199
ти	-10.0201
▁ل	-10.0205
支持	-10.0206
住	-10.0206
那么	-10.0207
云	-10.0207
未	-10.021
▁parents	-10.0215
▁anyone	-10.0215
”，	-10.022
▁Inc	-10.0238
提高	-10.0238
ă	-10.0245
제	-10.0248
▁evidence	-10.0251
绑定	-10.0253
▁din	-10.0254
铜匠	-10.0256
nom	-10.0256
▁một	-10.0256
▁cause	-10.0261
▁air	-10.0265
或者	-10.0266
少	-10.0266
▁THE	-10.0268
只	-10.0272
选	-10.0275
▁outside	-10.0277
▁price	-10.0282
である	-10.0292
ring	-10.0292
因	-10.0292
table	-10.0294
香甜	-10.0295
▁Sunday	-10.0298
▁medical	-10.0299
省	-10.0305
sch	-10.031
▁dari	-10.0311
天内可以退换	-10.0314
▁complete	-10.0315
店	-10.0317
▁published	-10.032
方面	-10.0326
▁black	-10.0328
表	-10.0334
▁meet	-10.0335
▁lost	-10.034
▁key	-10.0341
▁WEITERLEITUNG	-10.0344
▁economic	-10.0345
▁wrote	-10.0347
du	-10.0347
го	-10.035
▁woman	-10.0352
▁states	-10.0352
▁Day	-10.0353
赠送	-10.0353
发现	-10.0354
▁reading	-10.0354
其中	-10.0354
ları	-10.0355
^{	-10.0358
fa	-10.038
ts	-10.0383
方法	-10.0386
▁По	-10.0391
故选	-10.0391
주	-10.0395
lib	-10.0396
대	-10.0397
max	-10.04
意	-10.0404
▁Don	-10.041
ben	-10.0416
く	-10.042
▁played	-10.0421
▁saying	-10.0424
▁writing	-10.0427
之后	-10.043
xsl	-10.0433
▁لل	-10.0435
其他	-10.0438
不外溢	-10.044
点击抢购	-10.0441
ски	-10.0441
智能感温	-10.0442
下单可以	-10.0442
不沾内胆	-10.0442
▁है	-10.0442
手机	-10.0443
▁management	-10.046
▁lives	-10.047
战	-10.047
▁Park	-10.047
▁countries	-10.0483
▁minutes	-10.0498
BkZh	-10.0501
If	-10.0502
▁Her	-10.0502
cm	-10.0503
▁party	-10.0505
▁rate	-10.0506
▁Law	-10.0523
▁product	-10.0525
▁security	-10.0526
▁words	-10.0535
声	-10.0536
▁players	-10.054
▁account	-10.0545
▁mother	-10.055
▁anti	-10.0556
tmall	-10.056
po	-10.0565
没	-10.0565
▁hit	-10.0567
nd	-10.0567
▁college	-10.0572
س	-10.0579
▁Michael	-10.0588
什么	-10.059
病	-10.059
back	-10.0592
。”	-10.0594
集	-10.0594
▁Go	-10.0599
ier	-10.0602
房	-10.0607
string	-10.062
▁begin	-10.0623
▁itself	-10.0624
合作	-10.0626
▁opportunity	-10.0627
▁wrong	-10.0632
▁Monday	-10.0641
▁meeting	-10.0641
▁ask	-10.0643
成为	-10.065
信	-10.0651
▁cases	-10.0658
bin	-10.0659
▁created	-10.0661
▁books	-10.0661
lan	-10.0664
▁born	-10.0678
商	-10.0679
▁Board	-10.0701
ard	-10.0702
相关	-10.0702
▁address	-10.0703
▁currently	-10.0711
드	-10.0712
ان	-10.0714
aus	-10.0716
款	-10.0721
ч	-10.0721
▁word	-10.0726
一般	-10.0728
Data	-10.0729
放	-10.0733
▁legal	-10.0734
字	-10.0743
▁title	-10.0744
▁Bo	-10.075
▁provides	-10.0755
▁China	-10.0759
way	-10.0767
的呢	-10.0767
▁:=	-10.0774
男	-10.0781
这样	-10.0786
▁Con	-10.0788
();	-10.0791
河	-10.0793
è	-10.0795
▁||	-10.0798
▁specific	-10.0805
▁involved	-10.0815
해	-10.0818
破壁机可以打	-10.0834
可能	-10.0836
川	-10.0843
cite	-10.0844
tan	-10.0856
▁term	-10.0857
▁Texas	-10.0872
▁soon	-10.0876
▁Ver	-10.0879
reg	-10.0884
▁•	-10.0885
▁consider	-10.0888
▁died	-10.0889
And	-10.0891
▁police	-10.0892
▁average	-10.0893
म	-10.0896
▁ex	-10.0899
▁treatment	-10.0903
第一	-10.0903
很多	-10.093
▁Il	-10.0934
▁contact	-10.0941
class	-10.0943
정	-10.0952
د	-10.0954
this	-10.0954
▁English	-10.0956
出现	-10.0958
机器成品码	-10.0968
▁included	-10.0969
▁(*	-10.0975
bit	-10.0977
leri	-10.098
ik	-10.0983
▁white	-10.0992
 /:	-10.1002
▁Ha	-10.1005
▁Association	-10.1014
▁wife	-10.1022
(\	-10.1031
▁director	-10.1034
▁includes	-10.1054
ado	-10.1059
ger	-10.1062
正确	-10.1064
▁George	-10.1072
▁met	-10.1078
直接	-10.1079
▁Street	-10.1085
▁не	-10.1088
tb	-10.1093
▁Un	-10.1098
▁Notes	-10.1101
ren	-10.1103
赠送一年	-10.1103
▁stop	-10.1104
自带官方	-10.1104
联保一年	-10.1104
▁expected	-10.1118
ми	-10.1124
▁longer	-10.1129
▁cancer	-10.1134
镇	-10.1138
た	-10.114
▁practice	-10.1143
▁military	-10.1145
快	-10.1145
▁heard	-10.115
ò	-10.1154
▁effect	-10.1155
▁gave	-10.1161
▁moment	-10.1163
dy	-10.1164
▁etc	-10.1177
▁East	-10.1179
达	-10.1181
城市	-10.1185
▁Tuesday	-10.1189
pe	-10.1192
sum	-10.1193
span	-10.1194
▁potential	-10.1195
▁playing	-10.1199
▁em	-10.1201
交	-10.1208
▁Thursday	-10.121
sub	-10.1222
con	-10.1224
▁als	-10.1231
开展	-10.1236
这种	-10.1243
买	-10.1245
▁mit	-10.1252
联系我们	-10.1255
jpghttp	-10.1256
——	-10.127
▁production	-10.1272
ana	-10.1279
提升	-10.1281
▁Film	-10.1286
▁High	-10.1293
满足	-10.1294
▁é	-10.1297
right	-10.1299
ска	-10.1301
ish	-10.1302
▁simple	-10.1312
投资	-10.1312
种	-10.1317
联系	-10.1323
▁Press	-10.1327
ng	-10.133
á	-10.1331
iz	-10.1337
▁Art	-10.1339
宝	-10.1344
term	-10.1345
б	-10.1352
▁leave	-10.1352
比较	-10.1364
over	-10.137
return	-10.1371
Krtf	-10.1377
▁ist	-10.1379
▁material	-10.1404
cal	-10.1404
用户	-10.1405
▁Is	-10.1406
▁إلى	-10.141
▁success	-10.1415
进入	-10.1418
▁wasn	-10.1419
▁growth	-10.1427
▁uma	-10.1427
Le	-10.1429
报	-10.1432
ina	-10.1433
ating	-10.1438
ド	-10.1439
された	-10.1445
▁application	-10.1445
▁review	-10.1447
▁build	-10.1448
▁Red	-10.1448
▁additional	-10.1455
采用	-10.1463
▁necessary	-10.147
RowBox	-10.1474
▁Car	-10.1476
ト	-10.1478
天无理由的	-10.1482
控制	-10.1483
▁whose	-10.1484
mail	-10.1485
▁\<	-10.1487
tra	-10.1489
▁Wednesday	-10.149
▁weeks	-10.1491
▁kids	-10.1492
tro	-10.1492
如何	-10.1493
GD	-10.1495
top	-10.1497
ofl	-10.1502
军	-10.1504
世	-10.1511
▁couple	-10.1511
你好	-10.1515
食品级不锈钢	-10.1518
部分	-10.1523
▁write	-10.1531
▁White	-10.1532
▁board	-10.1533
您收到	-10.1535
▁goal	-10.1536
▁für	-10.1539
▁receive	-10.1545
▁през	-10.1548
For	-10.1549
空	-10.1564
▁Di	-10.1567
부	-10.157
;	-10.1577
▁groups	-10.1578
员	-10.1579
▁remember	-10.1579
▁schools	-10.1596
▁professional	-10.1607
应用	-10.161
▁instead	-10.1614
非常方便的哈	-10.1614
落	-10.1616
▁pass	-10.1618
jJ	-10.1619
▁Council	-10.1625
▁author	-10.1626
有限公司	-10.1627
▁allow	-10.1627
▁global	-10.1632
▁il	-10.1635
送	-10.1638
rd	-10.1639
教	-10.1644
创新	-10.1646
tu	-10.1648
百	-10.1651
社	-10.1653
iss	-10.1653
▁Bar	-10.1658
医院	-10.1667
ی	-10.1678
ラ	-10.1681
ار	-10.1682
▁systems	-10.1683
治疗	-10.1683
▁ways	-10.1683
地区	-10.1684
ru	-10.1686
▁knew	-10.1688
def	-10.1691
ди	-10.1691
▁Sa	-10.1696
ь	-10.1698
▁Robert	-10.1703
order	-10.1705
ah	-10.1707
전	-10.171
▁pada	-10.1711
▁follow	-10.1712
健康	-10.1714
リ	-10.1715
▁su	-10.1718
校	-10.1728
ap	-10.1729
包邮	-10.173
层	-10.1734
还有	-10.1736
了解	-10.1737
▁Ke	-10.1738
▁TV	-10.1738
AP	-10.1742
才	-10.1745
ف	-10.1746
▁London	-10.1747
ker	-10.1749
▁text	-10.1749
List	-10.1749
政府	-10.1751
单位	-10.1762
new	-10.1764
Chú	-10.1769
▁please	-10.1769
×	-10.1769
▁ha	-10.1769
eq	-10.1769
却	-10.177
▁throughout	-10.177
file	-10.177
杯	-10.1771
▁morning	-10.1773
か	-10.1774
▁thích	-10.1778
bi	-10.1781
追加	-10.1782
操作	-10.1783
▁paper	-10.1789
▁step	-10.1791
米糊	-10.1792
▁See	-10.1795
vo	-10.1795
▁seem	-10.1799
院	-10.1799
保护	-10.1801
的人	-10.1801
销售	-10.1801
▁activities	-10.1802
장	-10.1802
ell	-10.1803
он	-10.1804
use	-10.181
EIHM	-10.1813
全自动多功能	-10.1813
sTga	-10.1813
▁source	-10.1814
▁RINVIA	-10.1816
▁Research	-10.1825
非	-10.1827
)(	-10.1827
反	-10.1842
wa	-10.1844
state	-10.1846
▁population	-10.1846
的哈	-10.1847
▁На	-10.185
作用	-10.1852
▁Office	-10.1855
('	-10.1862
ure	-10.1868
▁considered	-10.1869
with	-10.187
▁Ge	-10.1879
古	-10.1882
▁respect	-10.1887
政治	-10.1887
▁friend	-10.1887
获得	-10.1892
利用	-10.1893
们	-10.1899
han	-10.1901
स	-10.1905
美国	-10.1912
▁Die	-10.1914
▁degree	-10.1914
延保	-10.1932
nTm	-10.1935
ль	-10.1937
ex	-10.1937
▁takes	-10.1941
ния	-10.1947
▁drive	-10.1948
▁difficult	-10.195
某	-10.1953
SNZI	-10.1956
▁computer	-10.1958
sel	-10.196
而且	-10.196
ле	-10.1961
新品爆款	-10.1962
▁related	-10.1968
▁served	-10.1968
▁Mac	-10.1976
节	-10.1977
高硼硅玻璃杯	-10.1984
▁focus	-10.1985
FA	-10.1987
▁science	-10.1993
des	-10.1997
▁现在购买	-10.1997
don	-10.2008
▁billion	-10.2013
孩子	-10.2015
▁sent	-10.2018
▁Company	-10.2019
として	-10.2019
▁chance	-10.2021
▁като	-10.2023
▁network	-10.2028
form	-10.203
▁Public	-10.203
수	-10.2032
▁conditions	-10.2033
tes	-10.2034
▁organization	-10.2037
any	-10.2038
▁loài	-10.2041
▁Institute	-10.2042
数据	-10.2044
che	-10.2059
▁language	-10.2067
▁»	-10.2071
▁fire	-10.2081
▁myself	-10.2082
确认收货	-10.2089
ku	-10.2104
▁impact	-10.2106
fer	-10.2107
▁release	-10.2109
나	-10.2112
您眼光真好	-10.2112
帮	-10.2114
▁entire	-10.2115
ED	-10.2118
标准	-10.2123
String	-10.2132
▁brought	-10.2135
▁Mark	-10.2139
▁loss	-10.2142
以上	-10.2148
真	-10.2156
▁fine	-10.2171
▁size	-10.2174
▁hear	-10.2174
▁knowledge	-10.2185
▁у	-10.2186
null	-10.2188
ф	-10.2191
▁church	-10.2201
ig	-10.2203
ци	-10.2217
系	-10.222
▁Jan	-10.223
▁comment	-10.2231
豆浆机	-10.2235
▁race	-10.2237
由于	-10.2238
香	-10.224
六	-10.2241
words	-10.2243
▁credit	-10.2244
map	-10.2248
料	-10.2253
▁reported	-10.226
到手只要	-10.2263
沉香线香	-10.2263
具有安神助眠的	-10.2264
眠香薰	-10.2264
家用睡	-10.2264
天然沉香线香	-10.2264
▁🔴	-10.2266
天内联系客服	-10.2266
可延保一年	-10.2266
共两年保修	-10.2266
ron	-10.2267
add	-10.2279
▁있다	-10.2282
ite	-10.2283
dan	-10.2284
▁مراجع	-10.2284
▁popular	-10.2294
资源	-10.2303
▁про	-10.2306
▁situation	-10.231
深	-10.231
operator	-10.2314
ee	-10.2316
▁Bu	-10.2321
▁trong	-10.2324
▁nature	-10.2334
db	-10.2336
像	-10.2346
▁Most	-10.2354
包括	-10.2364
▁Just	-10.2368
客户	-10.2372
PC	-10.2378
内胆	-10.2387
▁della	-10.239
关于	-10.2395
▁Hall	-10.2397
▁interesting	-10.2399
マ	-10.24
▁lower	-10.2401
ю	-10.2401
▁response	-10.2404
即	-10.2405
防	-10.2407
°	-10.2409
▁movie	-10.2418
榨汁杯	-10.2419
▁Committee	-10.242
▁modern	-10.242
▁approach	-10.2424
处理哦	-10.2428
不要	-10.2431
box	-10.2432
ise	-10.2436
ата	-10.2441
:	-10.2448
})	-10.2452
Id	-10.2453
▁عام	-10.2454
结构	-10.2456
but	-10.2458
▁significant	-10.2461
イ	-10.2464
费	-10.2473
ри	-10.2477
首	-10.2479
▁nation	-10.2484
言	-10.2491
包	-10.2493
pre	-10.2502
▁costs	-10.2504
▁web	-10.2508
마	-10.2508
请第一时间联系	-10.2509
▁learning	-10.2509
▁Let	-10.2512
北京	-10.2523
▁Ar	-10.2523
▁oil	-10.2524
▁în	-10.2525
刘	-10.2526
▁para	-10.2536
▁felt	-10.2538
uk	-10.254
ロ	-10.2552
長	-10.2554
▁album	-10.256
中遇到问题	-10.2563
左右	-10.2565
发生	-10.2567
视频链接	-10.2568
▁goes	-10.2569
▁sales	-10.2569
▁summer	-10.2571
如签收	-10.2578
我们给您妥善	-10.2579
▁الأ	-10.2579
▁den	-10.2579
ع	-10.258
此	-10.2583
ology	-10.2584
FEnergy	-10.2585
▁seu	-10.2585
▁Bill	-10.2585
▁William	-10.2592
▁fall	-10.2597
▁Da	-10.2599
眼	-10.26
ini	-10.2601
▁player	-10.2602
▁usually	-10.2604
ical	-10.2605
▁Na	-10.2608
see	-10.2615
为了	-10.2616
▁blood	-10.2618
▁Es	-10.2627
tar	-10.2629
▁Why	-10.2629
▁Europe	-10.2633
感谢	-10.2635
▁tried	-10.2638
ven	-10.264
tic	-10.2641
▁released	-10.2642
▁Congress	-10.2647
▁image	-10.265
格	-10.2653
每	-10.2655
▁nearly	-10.2655
за	-10.2657
▁style	-10.2667
▁Du	-10.267
▁Pre	-10.2674
边	-10.2674
▁named	-10.2677
汽车	-10.2677
ize	-10.268
▁Since	-10.2682
榨汁机	-10.27
sen	-10.2704
皮	-10.2707
ye	-10.2717
代表	-10.2719
▁apply	-10.2719
​​​	-10.2725
▁sound	-10.2728
oc	-10.273
执行	-10.2737
ial	-10.2738
▁Po	-10.2739
收	-10.274
这款破壁机	-10.2742
ната	-10.2744
▁ground	-10.2744
源	-10.2746
▁plans	-10.2746
各种	-10.2747
What	-10.2751
▁via	-10.2758
hr	-10.2759
形	-10.2759
我国	-10.2759
▁passed	-10.2766
▁leading	-10.2767
陈	-10.2768
历史	-10.2769
▁Christ	-10.277
盘	-10.2771
项	-10.2774
▁eine	-10.2776
트	-10.2781
▁stay	-10.2781
申请	-10.2781
▁attention	-10.2782
equation	-10.2784
gar	-10.2794
pt	-10.2796
ator	-10.2798
▁Education	-10.2798
ret	-10.2799
退	-10.2804
▁capital	-10.2804
▁Christian	-10.2805
ন	-10.2807
▁features	-10.2813
阳	-10.2815
▁hold	-10.2818
त	-10.2821
▁هو	-10.2829
▁resources	-10.2831
▁références	-10.2837
这是	-10.2837
▁band	-10.2841
self	-10.2847
▁Mon	-10.2851
作品	-10.2857
ра	-10.2858
运动	-10.2863
微	-10.2863
▁Life	-10.2865
ip	-10.2875
▁Smith	-10.2875
ش	-10.288
▁blog	-10.2882
▁beginning	-10.2884
▁Black	-10.2886
ov	-10.2886
par	-10.2886
র	-10.2895
若	-10.2896
配	-10.2897
连	-10.29
ec	-10.29
原告	-10.2901
▁agree	-10.2906
▁buy	-10.2927
▁na	-10.2928
▁patients	-10.2932
常	-10.2937
▁Ko	-10.2949
音	-10.2952
path	-10.2953
▁software	-10.2961
啊	-10.2966
▁sign	-10.2969
▁comments	-10.2974
▁spent	-10.298
▁statement	-10.2982
ria	-10.2983
동	-10.2985
基	-10.2991
个人	-10.2992
乐	-10.3004
▁bill	-10.3018
年哦	-10.3018
▁ensure	-10.3021
错误	-10.3026
],	-10.3028
▁base	-10.3029
ski	-10.3031
ой	-10.3046
▁disease	-10.3052
▁character	-10.3057
wood	-10.3058
带回家吧	-10.3061
)$	-10.3062
▁seven	-10.3064
喜欢就赶快	-10.3065
▁user	-10.3065
全网热销	-10.3065
价格优惠哦	-10.3065
咨询客服送	-10.3066
家正品保障	-10.3066
现场	-10.3069
▁Jesus	-10.3075
在的哦	-10.3078
▁force	-10.308
工业	-10.3083
八	-10.3084
▁Los	-10.3085
una	-10.3101
▁sort	-10.3108
cc	-10.3109
▁Canada	-10.3111
波	-10.3112
▁previous	-10.3117
▁decided	-10.3118
ل	-10.3122
▁color	-10.3128
▁built	-10.3129
▁announced	-10.313
▁turned	-10.3132
▁method	-10.3138
ice	-10.3139
▁environment	-10.3144
▁més	-10.3149
▁Science	-10.3152
产业	-10.3155
▁</	-10.3156
gu	-10.3168
ın	-10.317
▁act	-10.3177
tur	-10.3188
▁King	-10.3194
实	-10.3194
ey	-10.3207
че	-10.3209
▁road	-10.3212
▁Group	-10.3227
▁relationship	-10.323
▁luar	-10.323
后使用机器	-10.3234
简单文字赞美一下	-10.3234
退到您支付宝里面	-10.3234
カ	-10.3235
业务	-10.3244
▁install	-10.3244
▁income	-10.3253
▁Also	-10.3264
산	-10.3268
压	-10.3269
아	-10.3274
ile	-10.3276
pos	-10.328
▁About	-10.328
ff	-10.3281
▁happy	-10.3281
▁search	-10.3287
tal	-10.3287
nin	-10.3289
质	-10.329
的话	-10.3292
▁Green	-10.3296
▁History	-10.33
效果	-10.3307
），	-10.3311
▁А	-10.3312
▁redirect	-10.332
群	-10.3335
件	-10.3342
画	-10.3344
结合	-10.3344
화	-10.3345
▁У	-10.3349
分钟	-10.3359
き	-10.336
house	-10.336
血	-10.3364
积极	-10.3367
コ	-10.3368
▁standard	-10.3381
ä	-10.3384
增加	-10.3386
str	-10.3387
业	-10.3388
▁Ben	-10.34
▁이	-10.3402
确认收货后	-10.3403
五谷浆	-10.3404
alpha	-10.3408
患者	-10.3412
اء	-10.3413
▁thinking	-10.3415
▁center	-10.3419
楼	-10.3421
写	-10.3421
属于	-10.3423
view	-10.3428
直	-10.3442
▁sometimes	-10.3454
▁town	-10.3469
电子	-10.3472
ors	-10.3475
联	-10.3478
▁cap	-10.3478
▁families	-10.3479
室	-10.3483
▁designed	-10.3484
art	-10.3495
▁benefits	-10.3504
▁located	-10.3507
▁effective	-10.3509
▁campaign	-10.3509
ç	-10.3511
▁Peter	-10.3514
ists	-10.3516
▁district	-10.3516
角	-10.352
调	-10.3526
ide	-10.3533
不断	-10.3535
帮助	-10.3537
布	-10.3547
集团	-10.3547
▁Lo	-10.3556
▁offers	-10.3556
▁Service	-10.3563
黑	-10.3566
接	-10.3568
▁require	-10.357
▁insurance	-10.357
半	-10.3574
整机联	-10.3578
跟	-10.3582
年哦亲	-10.3587
▁Dec	-10.3588
▁table	-10.3589
▁Ad	-10.359
color	-10.3597
source	-10.3597
▁Information	-10.3599
▁|-	-10.3604
ara	-10.3605
▁expect	-10.3609
width	-10.3612
班	-10.3616
远	-10.3617
▁Program	-10.3625
ities	-10.3632
ble	-10.3633
▁looked	-10.3637
▁auf	-10.3639
赞美	-10.3642
▁happen	-10.3643
▁cut	-10.3644
土	-10.3644
▁break	-10.3645
拥有	-10.3651
希望	-10.3651
▁District	-10.366
well	-10.3668
▁unique	-10.367
▁India	-10.3676
▁teams	-10.3678
▁led	-10.3686
▁choose	-10.3689
▁projects	-10.3694
根	-10.3697
▁benefit	-10.3708
权	-10.3714
ney	-10.3726
▁husband	-10.3731
任	-10.3734
自然	-10.3734
▁options	-10.3736
今天	-10.3737
计划	-10.3739
轮	-10.374
▁improve	-10.3742
▁Even	-10.3743
▁è	-10.3744
era	-10.3748
és	-10.375
初	-10.3751
产品拍照	-10.3754
▁moved	-10.3759
第二	-10.3764
▁annual	-10.3765
题	-10.3765
▁effort	-10.3766
精神	-10.3767
ز	-10.3772
语	-10.3775
▁olarak	-10.3775
青	-10.3778
关系	-10.3778
ació	-10.3779
ram	-10.379
▁difference	-10.379
▁Commission	-10.3793
index	-10.3794
▁넘겨주기	-10.3795
见	-10.3798
▁region	-10.3803
端	-10.3803
ella	-10.3804
Value	-10.3804
方便	-10.3805
▁levels	-10.3815
mar	-10.3819
所有	-10.3819
▁physical	-10.382
ق	-10.3821
▁eyes	-10.3823
▁purpose	-10.3824
网站	-10.383
ft	-10.383
酒	-10.3838
▁develop	-10.3839
▁sebuah	-10.385
▁Business	-10.3853
▁Director	-10.3854
▁allowed	-10.3858
细胞	-10.386
▁false	-10.3861
▁budget	-10.3863
르	-10.3864
科学	-10.3869
===	-10.387
조	-10.3872
还可以	-10.3874
국	-10.3875
一起	-10.3877
ан	-10.3878
▁Government	-10.3879
野	-10.3883
排	-10.3883
▁track	-10.3887
يا	-10.3892
link	-10.3895
检查	-10.3898
水平	-10.3907
段	-10.3907
▁Club	-10.3909
ر	-10.3914
▁hands	-10.392
亚	-10.3922
▁basis	-10.3922
ви	-10.3925
知	-10.3926
一次	-10.3927
老师	-10.3929
▁Tom	-10.393
▁机器	-10.3933
均	-10.3934
点击链接可查看	-10.3938
ien	-10.3938
ナ	-10.394
条件	-10.394
▁Read	-10.3945
必须	-10.3946
▁giving	-10.3948
▁Men	-10.3951
▁limited	-10.3952
ship	-10.3953
▁certainly	-10.3954
▁Israel	-10.3955
▁inside	-10.3956
▁perfect	-10.3957
▁Lord	-10.3958
치	-10.3962
nu	-10.3962
side	-10.3965
▁society	-10.3966
▁Ma	-10.3967
▁Ne	-10.3967
值	-10.3969
▁Thomas	-10.3971
培训	-10.3971
▁System	-10.3973
▁dalam	-10.3975
▁individuals	-10.3977
can	-10.3977
▁British	-10.3979
▁Florida	-10.398
bb	-10.3988
余	-10.3988
▁Services	-10.3995
铁	-10.3995
ин	-10.3997
成功	-10.3997
▁regular	-10.3999
▁efforts	-10.4009
茶	-10.4011
では	-10.4013
▁paid	-10.4014
▁earlier	-10.4014
▁yourself	-10.4016
▁merupakan	-10.4025
kin	-10.4028
▁Federal	-10.4033
虽然	-10.4036
▁contract	-10.4037
са	-10.4038
▁ready	-10.4039
▁error	-10.4041
▁choice	-10.4044
保持	-10.4047
▁Ab	-10.4047
赛	-10.4047
▁numbers	-10.405
▁command	-10.4051
显示	-10.4061
听	-10.4066
▁أو	-10.4069
春	-10.4074
▁talking	-10.4079
har	-10.4084
[{"	-10.4084
▁European	-10.4085
字以上	-10.4095
▁coach	-10.4098
罗	-10.4103
　	-10.4111
且	-10.4111
▁reports	-10.4113
▁Sam	-10.4114
稍等	-10.4116
▁happened	-10.4116
▁starting	-10.4117
把收到的	-10.4117
产品如果使用	-10.4118
快速浆	-10.4118
武	-10.4119
▁era	-10.4119
正面操作	-10.4119
拍照或者视频	-10.4119
=""	-10.4119
发表成功后	-10.412
FEUq	-10.412
pp	-10.4123
只有	-10.4132
应该	-10.4135
建议	-10.4142
▁rules	-10.4149
ните	-10.4154
($	-10.4155
▁Last	-10.4157
▁eight	-10.4161
▁entre	-10.4162
松	-10.4166
ino	-10.4168
优惠	-10.4175
²	-10.4177
▁latest	-10.4181
▁Martin	-10.4186
安装	-10.4189
ken	-10.4192
▁ke	-10.4196
▁Big	-10.4196
▁externes	-10.4197
Tham	-10.4197
▁worth	-10.42
▁họ	-10.4201
▁Chicago	-10.4206
▁Many	-10.4208
하는	-10.4209
vin	-10.421
体验	-10.421
修	-10.4212
น	-10.4213
▁safety	-10.4215
sur	-10.4217
like	-10.4223
col	-10.4223
▁Americans	-10.4224
甲	-10.4226
▁sur	-10.4228
van	-10.4232
▁changed	-10.4232
▁employees	-10.4238
死	-10.4241
不会	-10.4243
▁economy	-10.4244
▁details	-10.4245
产	-10.425
早	-10.4255
▁vote	-10.4258
▁prior	-10.426
▁phone	-10.426
There	-10.4261
REDIRECIONAMENTO	-10.4261
ció	-10.4262
▁ability	-10.4267
ck	-10.4274
▁culture	-10.4277
更多	-10.4278
▁direct	-10.4279
ped	-10.4282
▁Ho	-10.4288
达到	-10.429
知识	-10.4291
万元	-10.4295
ът	-10.4295
▁stories	-10.4296
鱼	-10.43
来说	-10.4309
极	-10.4312
ö	-10.4314
ム	-10.4316
雨	-10.4318
▁land	-10.4323
▁Am	-10.4323
▁increased	-10.4325
更加	-10.4326
king	-10.433
▁successful	-10.4332
做好	-10.4334
▁shown	-10.4336
▁Air	-10.4339
▁posted	-10.434
▁interested	-10.4342
难	-10.4342
团	-10.4343
▁REDIRECCIÓN	-10.4343
mathcal	-10.4345
▁Va	-10.4346
是否	-10.4347
ú	-10.4349
more	-10.435
▁Well	-10.4354
▁poor	-10.4364
▁collection	-10.4366
head	-10.4371
ea	-10.4376
▁Dan	-10.4378
▁au	-10.4378
”。	-10.4378
▁email	-10.4378
毫升	-10.4383
▁People	-10.4386
계	-10.4389
▁Liens	-10.4394
形成	-10.4396
[{	-10.4404
gy	-10.4407
▁analysis	-10.441
欢迎光临	-10.441
▁tahun	-10.4414
官	-10.4416
▁Pa	-10.4416
But	-10.4421
▁fight	-10.4424
▁official	-10.4428
间	-10.4428
) —	-10.4429
명	-10.4431
▁Internet	-10.4433
▁خارجية	-10.4437
▁година	-10.4438
▁Music	-10.4439
▁looks	-10.4439
理	-10.4443
▁parts	-10.4443
千	-10.4448
▁directly	-10.4449
▁round	-10.4454
七	-10.4457
ev	-10.4457
ный	-10.4459
dia	-10.4462
士	-10.4464
My	-10.4467
▁си	-10.4467
▁quickly	-10.4467
▁developed	-10.4468
bu	-10.4473
br	-10.4475
②	-10.4476
했다	-10.4486
升级款	-10.4487
Get	-10.4494
▁positive	-10.4496
▁Ex	-10.4497
▁Times	-10.4498
zi	-10.4499
param	-10.4499
une	-10.45
▁claim	-10.4506
上的	-10.4513
▁England	-10.4517
▁أن	-10.4523
：“	-10.4526
您好	-10.4527
मा	-10.4527
low	-10.4527
▁gas	-10.4529
▁completely	-10.453
▁studies	-10.4531
满	-10.4533
指	-10.4534
)"	-10.4545
▁Brown	-10.4547
参加	-10.4549
▁Mary	-10.4553
底	-10.4558
认为	-10.4567
dd	-10.4568
飞	-10.4573
ン	-10.4574
全面	-10.4574
su	-10.4581
▁alone	-10.4582
～	-10.4583
▁save	-10.4583
ot	-10.4585
وا	-10.4587
▁수	-10.459
▁understanding	-10.459
介绍	-10.4593
from	-10.4595
mat	-10.46
模式	-10.4602
▁ideas	-10.4603
▁select	-10.4606
cl	-10.4619
保障	-10.462
ей	-10.4621
地址	-10.4621
▁request	-10.4624
福	-10.4628
ping	-10.4631
重点	-10.4635
综合	-10.4635
So	-10.4636
除	-10.4636
px	-10.4638
十	-10.4639
▁beyond	-10.4641
▁Примечания	-10.4642
▁solution	-10.4645
▁exactly	-10.4646
需求	-10.4647
交流	-10.4648
▁values	-10.4652
▁po	-10.4653
auth	-10.4657
▁According	-10.4662
我们送	-10.4666
分享	-10.4667
建筑	-10.4671
▁Please	-10.4672
▁Award	-10.4672
学院	-10.4673
▁enjoy	-10.4677
▁star	-10.4677
▁под	-10.4688
现在拍下	-10.4691
▁Society	-10.4691
▁watch	-10.4692
▁particularly	-10.4695
一年的延保	-10.4696
▁River	-10.4697
소	-10.47
▁gives	-10.4701
差	-10.4705
ら	-10.4706
空间	-10.4708
▁Will	-10.471
电话	-10.4712
这一	-10.4716
▁Foundation	-10.4723
▁customers	-10.4725
共同	-10.4726
▁League	-10.4726
精	-10.4727
▁cover	-10.4729
▁Museum	-10.4734
run	-10.4736
▁Google	-10.4737
▁그	-10.4737
array	-10.4743
▁providing	-10.4743
▁continued	-10.4744
换	-10.4747
▁раз	-10.4747
▁followed	-10.4748
▁const	-10.4751
▁marriage	-10.4751
ı	-10.4753
ER	-10.4756
▁fit	-10.4758
▁huge	-10.4759
切	-10.4759
▁link	-10.4761
经过	-10.4762
结	-10.4764
▁Top	-10.4769
▁truth	-10.4769
▁stand	-10.4772
ги	-10.4773
▁inter	-10.4778
read	-10.4783
タ	-10.4783
▁wide	-10.4787
eur	-10.4788
▁stuff	-10.4796
▁Although	-10.4802
af	-10.4803
▁drug	-10.4805
미	-10.4806
小时	-10.4807
课	-10.4808
َ	-10.4811
fi	-10.4811
lor	-10.4812
▁daughter	-10.4813
ят	-10.4816
菜	-10.4819
传	-10.4822
▁Bay	-10.4822
正在	-10.4825
▁khảo	-10.4827
▁whom	-10.4828
越	-10.483
▁perhaps	-10.4834
▁О	-10.4834
党	-10.4834
▁although	-10.4835
All	-10.4843
▁serious	-10.4847
货	-10.4848
▁Apple	-10.4849
▁Over	-10.485
推荐	-10.4855
▁beautiful	-10.4855
▁device	-10.4858
▁Good	-10.4858
关	-10.4859
spec	-10.486
error	-10.4861
▁stage	-10.4862
家庭	-10.4864
抗	-10.4875
机构	-10.4876
US	-10.4879
▁serve	-10.488
点击	-10.4881
▁auto	-10.4884
Sunm	-10.4884
▁fans	-10.4886
Mqux	-10.4886
叶刀片	-10.4886
▁fast	-10.4889
には	-10.4895
▁nice	-10.4898
过程中	-10.49
point	-10.4901
被告	-10.4903
по	-10.491
▁Richard	-10.4914
ü	-10.4916
position	-10.4916
 ，	-10.4919
▁Union	-10.4919
会议	-10.492
▁OF	-10.4925
put	-10.4926
word	-10.4928
iM	-10.4934
▁described	-10.4937
ля	-10.4937
PP	-10.4938
del	-10.4938
BkQQW	-10.4939
군	-10.494
▁weight	-10.495
▁Ubuntu	-10.4952
ible	-10.4952
td	-10.4956
▁established	-10.4956
▁letter	-10.4956
▁travel	-10.4957
基本	-10.496
继续	-10.4965
▁jobs	-10.4965
▁lack	-10.4966
cu	-10.4968
▁screen	-10.497
▁officials	-10.497
フ	-10.4971
草	-10.4974
cha	-10.4977
▁century	-10.4978
▁Great	-10.4979
▁maybe	-10.4987
师	-10.4989
发布	-10.4997
▁finally	-10.5001
▁conference	-10.5006
mH	-10.5006
化学	-10.5012
row	-10.5014
си	-10.502
▁multiple	-10.5021
зи	-10.5021
ari	-10.5024
证	-10.5026
▁code	-10.5028
ez	-10.5028
エ	-10.503
客	-10.5032
store	-10.5032
▁gets	-10.5036
lik	-10.5042
然后	-10.5047
存在	-10.5067
ions	-10.5069
牌	-10.507
▁werd	-10.5072
▁spend	-10.5073
▁middle	-10.5076
温度	-10.5078
灯	-10.5078
毛	-10.5082
上海	-10.5083
▁During	-10.5083
ков	-10.5084
解决	-10.5084
营养粥	-10.5085
纯豆浆	-10.509
果仁露	-10.509
的眼光真好	-10.509
ong	-10.5092
易	-10.5096
制作	-10.5097
▁năm	-10.5098
提	-10.51
……	-10.51
De	-10.5101
ил	-10.5106
sta	-10.5107
BkQQX	-10.5109
▁charge	-10.5115
▁Web	-10.5115
▁civil	-10.5117
ium	-10.5118
ар	-10.512
求	-10.512
ев	-10.5128
▁wish	-10.513
phi	-10.5133
液	-10.5133
А	-10.5136
▁Open	-10.5141
part	-10.5148
ос	-10.5151
▁Other	-10.5154
Be	-10.5155
得到	-10.5158
った	-10.516
ные	-10.5167
▁multi	-10.5171
③	-10.5172
て	-10.5172
▁wurde	-10.5173
▁condition	-10.5178
▁Love	-10.5179
现	-10.5182
▁Vi	-10.5184
ба	-10.5187
▁rule	-10.5188
▁greater	-10.5189
▁teaching	-10.5193
mal	-10.52
▁esterni	-10.52
▁voice	-10.5201
▁Sun	-10.5202
적	-10.5204
▁제	-10.5207
改	-10.5208
未来	-10.521
▁largest	-10.521
一下	-10.521
dev	-10.5215
▁senior	-10.5215
▁complex	-10.5215
▁associated	-10.5217
ability	-10.5217
py	-10.5222
博	-10.5222
▁Fa	-10.5222
▁Indonesia	-10.5224
tre	-10.5228
▁double	-10.5229
▁files	-10.523
谢谢	-10.5231
▁guy	-10.5242
▁helped	-10.5243
不知	-10.5247
导致	-10.5253
ament	-10.5255
今年	-10.5255
خ	-10.5256
▁commercial	-10.5257
▁normal	-10.5259
관	-10.5261
▁wouldn	-10.5262
▁card	-10.5267
▁feet	-10.5279
▁variety	-10.528
▁pressure	-10.528
ris	-10.5282
免费	-10.5283
▁football	-10.5286
gAh	-10.5288
mann	-10.5289
参与	-10.5292
IP	-10.5293
▁appropriate	-10.5293
▁quarter	-10.5297
▁foreign	-10.53
▁match	-10.5313
开发	-10.5316
▁Ro	-10.5319
▁skills	-10.5323
任何	-10.5329
▁pain	-10.533
微信	-10.5333
AL	-10.5333
听到	-10.5335
▁send	-10.5339
▁Women	-10.5343
▁Virginia	-10.5343
▁gone	-10.5344
智能	-10.5346
▁press	-10.5355
保证	-10.536
ran	-10.5363
Al	-10.5366
би	-10.537
九	-10.5376
▁growing	-10.5376
食	-10.5379
歌	-10.538
▁К	-10.5381
才能	-10.5381
▁overall	-10.5383
ji	-10.5387
▁super	-10.5396
▁couldn	-10.5397
政策	-10.5403
▁laws	-10.5407
最后	-10.541
▁Weblinks	-10.541
九年级	-10.5413
以下	-10.5414
软件	-10.5414
问	-10.5414
Con	-10.5415
▁года	-10.5415
注意	-10.5417
As	-10.5422
▁opinion	-10.5423
▁types	-10.5426
起来	-10.5429
▁wants	-10.543
ズ	-10.5439
钱	-10.544
▁pick	-10.5446
▁note	-10.5448
비	-10.5451
して	-10.5454
ал	-10.5455
检测	-10.5457
▁prevent	-10.5459
ие	-10.546
▁married	-10.5462
喜欢	-10.5473
open	-10.5475
ach	-10.5475
及时	-10.5477
ph	-10.5478
▁defense	-10.548
▁records	-10.5482
被执行人	-10.5496
ет	-10.5496
hat	-10.5498
ной	-10.55
随着	-10.5506
肉	-10.5508
gr	-10.5508
▁Kaynakça	-10.5513
▁requirements	-10.5514
剂	-10.5515
旅游	-10.5517
▁protect	-10.5519
ale	-10.5519
▁object	-10.5522
which	-10.5524
Fi	-10.5524
▁Two	-10.5524
य	-10.5525
ative	-10.5527
}(	-10.5533
▁red	-10.5536
▁France	-10.554
▁leaders	-10.5541
▁reasons	-10.5544
▁therefore	-10.5548
其实	-10.5556
记者	-10.5557
▁effects	-10.5558
لي	-10.5558
▁club	-10.5559
据	-10.556
ML	-10.5562
目	-10.5563
▁notice	-10.5567
▁Les	-10.5568
叶	-10.5575
▁responsible	-10.5576
▁picture	-10.5579
经营	-10.5579
▁USA	-10.5582
▁firm	-10.5582
▁Central	-10.5583
▁Lu	-10.5586
Error	-10.5588
交通	-10.5597
By	-10.5598
▁proposed	-10.5601
例	-10.5602
▁organizations	-10.5604
并且	-10.5606
nın	-10.5614
ries	-10.5615
문	-10.5617
down	-10.5618
▁speak	-10.5618
▁weekend	-10.5623
세	-10.5626
全球	-10.5629
ह	-10.5633
▁status	-10.5634
考	-10.5635
▁Note	-10.5636
ج	-10.5636
▁sold	-10.5636
▁construction	-10.5638
▁easily	-10.5642
▁pour	-10.5644
▁das	-10.5645
▁dem	-10.5646
一年	-10.5647
史	-10.565
▁की	-10.5653
消费	-10.5654
反应	-10.5655
酸	-10.5657
几	-10.5657
说明	-10.5662
▁wait	-10.5666
▁faith	-10.5667
▁shot	-10.5677
▁moving	-10.5679
That	-10.568
ـ	-10.5681
派	-10.5689
▁Te	-10.5689
타	-10.5694
▁Charles	-10.5695
izing	-10.5695
▁ver	-10.5698
杨	-10.5698
▁users	-10.5698
▁highly	-10.57
读	-10.5701
▁song	-10.5701
国内	-10.5705
不过	-10.5708
シ	-10.5712
▁Nov	-10.5714
宣传	-10.5716
▁central	-10.5719
▁department	-10.5722
pl	-10.5726
node	-10.5728
展	-10.5729
SU	-10.5733
领	-10.5736
other	-10.5738
▁ي	-10.5741
▁Su	-10.5744
▁مواليد	-10.5745
两个	-10.5746
ّ	-10.5746
果	-10.5749
自动	-10.575
▁Who	-10.5752
*/	-10.5754
ica	-10.5756
性能	-10.576
▁Community	-10.5763
▁hearing	-10.5765
▁Are	-10.5768
▁Li	-10.5769
粉	-10.5772
决定	-10.5774
ц	-10.5775
▁piece	-10.5778
ского	-10.5779
▁walk	-10.5781
ref	-10.5782
▁Under	-10.5783
曲	-10.5784
бо	-10.5787
▁Har	-10.579
▁places	-10.5792
▁dengan	-10.5797
New	-10.5801
▁active	-10.5802
团队	-10.5803
咨询	-10.5803
案	-10.5804
股	-10.5804
▁pen	-10.5808
▁agency	-10.5814
夜	-10.5815
info	-10.5816
니	-10.5817
▁agreement	-10.5821
支	-10.5824
▁Hi	-10.5826
坚持	-10.5827
▁French	-10.5829
产生	-10.5837
▁interview	-10.5837
án	-10.5841
Un	-10.5844
▁Section	-10.5845
▁goals	-10.5845
树	-10.5848
oJ	-10.5848
便	-10.5848
▁Get	-10.5849
ку	-10.5852
▁Year	-10.5853
▁guys	-10.5859
你的	-10.5861
ele	-10.5863
▁toward	-10.5869
▁presented	-10.587
ava	-10.5873
Set	-10.5874
▁Cor	-10.5876
▁towards	-10.5877
银行	-10.5877
ats	-10.5877
▁camp	-10.5879
ক	-10.588
▁Reply	-10.5881
▁basic	-10.5882
创	-10.5884
ag	-10.5891
las	-10.5892
养	-10.5894
▁का	-10.5895
▁discussion	-10.5896
tive	-10.59
▁được	-10.5905
되었다	-10.5906
하고	-10.5909
▁generally	-10.5909
▁context	-10.591
▁activity	-10.5914
朝	-10.5914
▁Mc	-10.5919
ح	-10.5922
▁fan	-10.5931
до	-10.5933
▁religious	-10.5935
KrvE	-10.5938
期间	-10.5941
bre	-10.5942
ata	-10.5943
rat	-10.5943
^"""	-10.5947
▁African	-10.5948
办	-10.5954
▁remain	-10.5955
▁este	-10.5957
qui	-10.5958
ura	-10.5963
center	-10.5968
箱	-10.5969
标	-10.5972
▁unit	-10.5973
▁actual	-10.5975
ん	-10.5979
▁thus	-10.5983
▁reach	-10.5985
▁Social	-10.5987
治	-10.5991
▁Carolina	-10.5993
▁plus	-10.5993
①	-10.5994
▁structure	-10.5994
script	-10.5998
▁rates	-10.5999
ae	-10.6002
一种	-10.6005
レ	-10.6006
ى	-10.6007
_{\	-10.6015
style	-10.6019
jo	-10.6019
加强	-10.6019
オ	-10.602
우	-10.602
town	-10.6024
岁	-10.6027
游	-10.6028
▁sebagai	-10.6035
▁Free	-10.6037
▁compared	-10.6039
短	-10.6039
▁doubt	-10.6042
pur	-10.6042
▁speed	-10.6048
无法	-10.605
▁safe	-10.6051
▁је	-10.6052
FF	-10.6053
▁offered	-10.6059
▁Com	-10.6059
▁Today	-10.606
व	-10.606
▁qui	-10.6061
dis	-10.6062
▁store	-10.6062
▁Bank	-10.6063
▁academic	-10.6065
▁Johnson	-10.6066
▁عن	-10.6072
▁appear	-10.6074
ita	-10.6075
tel	-10.6076
kar	-10.6077
▁DOORVERWIJZING	-10.6078
og	-10.6078
만	-10.6078
▁sites	-10.608
▁Land	-10.608
EE	-10.608
▁location	-10.6081
▁planning	-10.6084
この	-10.6086
▁attack	-10.6087
ส	-10.6088
ник	-10.609
园	-10.6093
▁Because	-10.6095
超过	-10.6097
▁eye	-10.61
措施	-10.61
ก	-10.6103
减	-10.6104
▁Island	-10.6104
▁var	-10.6106
▁UK	-10.6109
人们	-10.611
英语	-10.6112
▁immediately	-10.6114
are	-10.6115
有关	-10.6116
К	-10.6117
IN	-10.6117
轻	-10.6119
▁clean	-10.6122
ре	-10.6124
▁feature	-10.6125
伤	-10.6129
ably	-10.6129
aliyun	-10.6133
み	-10.6134
▁Part	-10.6136
▁workers	-10.6137
▁مع	-10.614
де	-10.6146
▁stock	-10.6147
变化	-10.6149
▁cross	-10.615
zo	-10.6151
您的订单	-10.6152
▁opportunities	-10.6152
加入	-10.6154
hhE	-10.6156
▁investment	-10.6157
▁learned	-10.6158
ZoJt	-10.6161
▁deep	-10.6169
▁movement	-10.617
▁tả	-10.6174
湖	-10.6175
▁Ka	-10.6179
属	-10.6184
▁пре	-10.6186
戦	-10.6188
▁funds	-10.6189
▁rock	-10.6192
▁brain	-10.6193
▁seemed	-10.6195
ée	-10.6196
===	-10.6196
▁operations	-10.6197
illa	-10.6202
________________	-10.6204
ius	-10.6209
▁→	-10.6213
区域	-10.6213
als	-10.6213
\<	-10.6213
cr	-10.6216
している	-10.6225
노	-10.6228
完全	-10.6231
▁Africa	-10.6233
▁hour	-10.6235
▁Paris	-10.6236
ili	-10.6236
▁materials	-10.6237
▁Wa	-10.6237
▁Van	-10.6238
不仅	-10.624
永	-10.6241
Co	-10.6252
free	-10.6255
雪	-10.6255
ep	-10.6258
居	-10.6261
ー	-10.6262
投	-10.6263
政	-10.6272
▁administration	-10.6272
推动	-10.6275
专家	-10.6275
▁allows	-10.6281
▁Ri	-10.6282
asi	-10.6288
▁print	-10.6288
▁Е	-10.6292
gra	-10.6293
经验	-10.6293
ी	-10.6295
施工	-10.6297
user	-10.6301
PS	-10.6305
▁miles	-10.631
足	-10.6313
eb	-10.6318
ista	-10.633
Object	-10.6331
▁radio	-10.6332
start	-10.6332
▁Show	-10.6333
植物	-10.6335
cs	-10.6342
服	-10.6342
▁brother	-10.6345
ola	-10.6349
▁favorite	-10.6349
▁Ja	-10.635
ий	-10.6354
▁yılında	-10.6359
▁background	-10.6361
nde	-10.6365
煎药	-10.6369
ных	-10.6371
快速	-10.6371
考试	-10.6373
▁host	-10.6374
副	-10.6375
章	-10.6376
ros	-10.6377
ك	-10.6378
一定	-10.6378
TV	-10.638
File	-10.6381
ement	-10.6382
ме	-10.6383
uz	-10.6384
▁floor	-10.6385
▁Bi	-10.639
▁independent	-10.6391
▁copy	-10.6397
真的	-10.64
On	-10.64
▁sea	-10.6404
兵	-10.6404
▁regarding	-10.6409
持续	-10.6411
购买	-10.6411
价值	-10.6412
▁nor	-10.6415
▁Ta	-10.6416
▁در	-10.6416
OR	-10.6418
чи	-10.6418
light	-10.6418
部门	-10.6419
何	-10.642
方向	-10.6424
ano	-10.6426
英	-10.6433
打造	-10.6434
["	-10.6435
tain	-10.6438
▁Super	-10.644
▁Comments	-10.644
▁string	-10.6443
pu	-10.6444
▁document	-10.6446
▁digital	-10.6448
▁Best	-10.6452
药材	-10.6454
▁dead	-10.6456
▁award	-10.6456
▁primary	-10.6457
zen	-10.6457
ম	-10.6458
▁avoid	-10.6458
▁trial	-10.6459
that	-10.646
search	-10.6461
▁Pan	-10.6463
war	-10.6464
朋友	-10.6467
▁Boston	-10.6469
▁му	-10.6469
拍	-10.6469
▁mid	-10.6471
▁progress	-10.6471
▁sex	-10.6472
促进	-10.6477
一直	-10.648
▁Security	-10.6481
▁majority	-10.6486
▁except	-10.6488
词	-10.6492
종	-10.6496
▁finished	-10.6496
▁Book	-10.6501
推	-10.6502
▁killed	-10.6502
▁III	-10.6503
▁Development	-10.6504
itat	-10.6505
வ	-10.6507
▁photo	-10.651
▁Project	-10.651
牛	-10.652
ford	-10.6522
IC	-10.6523
hu	-10.6524
亿元	-10.6524
vers	-10.6527
件商品	-10.6528
▁И	-10.6531
人的	-10.6536
▁bu	-10.6543
▁opening	-10.6544
之一	-10.6547
▁sale	-10.6549
→	-10.6549
▁Long	-10.6551
▁Pe	-10.6551
速	-10.6553
ок	-10.6553
▁exist	-10.6559
▁otherwise	-10.6561
按照	-10.6562
ল	-10.6564
▁produced	-10.6565
重要	-10.6572
结果	-10.6574
room	-10.6575
bra	-10.6579
print	-10.6579
冰	-10.6579
之前	-10.6582
रा	-10.6583
体育	-10.6584
▁Journal	-10.6585
met	-10.6585
board	-10.6588
兴	-10.6592
▁Angeles	-10.6594
▁Senate	-10.6594
State	-10.6595
па	-10.6595
▁feeling	-10.6597
ст	-10.6597
法律	-10.6599
long	-10.66
▁kept	-10.6601
El	-10.6607
cy	-10.661
videocd	-10.661
ball	-10.6613
膜	-10.6615
LE	-10.6617
▁Any	-10.6622
lock	-10.6626
减少	-10.6626
▁Time	-10.6629
找	-10.6632
▁returned	-10.6637
▁businesses	-10.6637
巴	-10.6637
志	-10.6642
▁Lee	-10.6646
cia	-10.6646
别	-10.6647
▁grow	-10.6648
An	-10.6651
▁Mike	-10.6657
▁trip	-10.6659
ral	-10.6661
ste	-10.6662
需	-10.6666
▁अ	-10.6669
▁об	-10.667
看到	-10.6673
오	-10.6674
gel	-10.6679
正常	-10.6681
▁leader	-10.6682
▁correct	-10.6683
商品	-10.6683
进一步	-10.6684
cut	-10.6686
▁الت	-10.6686
단	-10.669
berg	-10.6692
IT	-10.6694
BkyQ	-10.6696
▁reduce	-10.67
补	-10.6701
▁بال	-10.6703
CH	-10.6703
▁एक	-10.6703
步	-10.6704
煮	-10.6708
▁runs	-10.6711
▁guess	-10.6712
领域	-10.6714
系列	-10.6716
yl	-10.672
$$	-10.6723
▁Facebook	-10.6732
▁Saint	-10.6738
报告	-10.6739
ula	-10.6739
小可爱	-10.6741
▁lines	-10.6748
胜	-10.6751
▁Lake	-10.6752
же	-10.6755
cher	-10.6763
▁girl	-10.6764
▁Ci	-10.6765
套	-10.6767
座	-10.6768
dfrac	-10.677
加工	-10.6772
rie	-10.6773
教学	-10.6775
▁daily	-10.6775
هو	-10.6776
ische	-10.6777
失	-10.678
活	-10.678
▁التي	-10.6781
▁claims	-10.6781
▁Ca	-10.6786
진	-10.6788
その	-10.6788
▁connection	-10.6789
fo	-10.6789
ط	-10.6794
运	-10.6794
阿	-10.6795
▁items	-10.6795
▁Scott	-10.6796
wi	-10.6799
via	-10.6801
建立	-10.6803
▁funding	-10.6804
▁�	-10.6804
制度	-10.6807
▁Human	-10.6809
▁Si	-10.6812
во	-10.6817
▁Vol	-10.6817
▁Oct	-10.6828
प	-10.6828
具体	-10.6829
▁Rock	-10.683
▁Conference	-10.6832
▁produce	-10.6834
订单号	-10.6837
第三	-10.684
▁seva	-10.6841
来源	-10.6845
▁hospital	-10.6848
▁الع	-10.6852
您可以	-10.6855
阅读	-10.6859
sec	-10.6859
▁oleh	-10.6861
▁Ка	-10.6861
▁nine	-10.6862
沙	-10.6865
曾	-10.6865
";	-10.6866
▁completed	-10.6867
往	-10.6867
甚至	-10.6867
避免	-10.6868
ato	-10.6868
▁path	-10.6869
冷	-10.687
可以随时咨询我们的	-10.687
中有不懂的	-10.6871
全国联保售后无忧	-10.6871
有需要尽早	-10.6872
您安排优先发货	-10.6872
▁Justice	-10.6872
▁交易时间	-10.6873
▁standards	-10.6874
拍哦	-10.6876
ブ	-10.6878
▁determine	-10.6884
▁protection	-10.6888
ations	-10.6888
▁figure	-10.6897
井	-10.6898
▁Road	-10.69
滴	-10.69
▁Catholic	-10.6901
▁auch	-10.6902
cos	-10.6904
В	-10.6906
▁spending	-10.6906
");	-10.6908
钢	-10.6909
列	-10.6913
▁Za	-10.6916
▁Media	-10.6916
▁Library	-10.6925
玉	-10.6928
law	-10.6928
ens	-10.6929
ский	-10.6929
▁los	-10.693
FC	-10.6932
ese	-10.6938
不锈钢	-10.6939
▁fair	-10.6945
▁existing	-10.6946
▁Team	-10.6948
▁nel	-10.6948
▁Japan	-10.6954
▁Grand	-10.6955
*^	-10.6961
▁Australia	-10.6962
نا	-10.6963
社区	-10.6967
)))	-10.697
▁theory	-10.697
年に	-10.6973
成本	-10.6975
▁appears	-10.6978
ま	-10.6981
▁click	-10.6991
▁Der	-10.6995
▁argument	-10.6996
照	-10.6998
ud	-10.7001
亿	-10.7001
▁fourth	-10.7001
う	-10.7002
下载	-10.7003
▁instance	-10.7009
▁Windows	-10.7012
▁remains	-10.7017
街	-10.7022
人民	-10.7023
ミ	-10.7027
ever	-10.7029
推进	-10.703
农	-10.7035
act	-10.7038
キ	-10.7041
rate	-10.7042
▁memory	-10.7045
▁През	-10.7045
Box	-10.7045
ं	-10.7048
▁Mi	-10.7053
}_{	-10.7054
▁older	-10.7054
▁package	-10.7055
盛	-10.7056
▁raised	-10.7057
ray	-10.7058
하	-10.7058
bus	-10.706
▁direction	-10.7061
ем	-10.7063
group	-10.7064
istic	-10.7067
된	-10.7067
BkQQY	-10.707
▁Star	-10.7071
ons	-10.7071
▁href	-10.7072
ม	-10.7072
彩	-10.7073
▁bank	-10.7075
its	-10.7077
▁challenge	-10.7078
▁critical	-10.7078
有效	-10.7083
nes	-10.7089
American	-10.7096
book	-10.7096
▁Thanks	-10.7096
ub	-10.7098
行为	-10.7099
lie	-10.7102
▁German	-10.7106
▁communities	-10.7107
Text	-10.711
▁Ni	-10.7112
在线	-10.7113
喝呢	-10.7115
ما	-10.7115
电力十足	-10.7116
无线便携	-10.7117
lı	-10.7118
秒一杯鲜	-10.7118
榨汁细腻好喝有营养	-10.7119
▁LJ	-10.7119
玩	-10.712
▁我给您推荐一款	-10.712
burg	-10.7122
启动	-10.7124
▁names	-10.7125
ニ	-10.7126
▁Ohio	-10.7131
▁Gar	-10.7132
随时随地榨	-10.7134
ウ	-10.7143
▁map	-10.7143
мо	-10.7145
▁whatever	-10.7147
▁Secretary	-10.7149
▁traditional	-10.7151
sin	-10.7152
兰	-10.7152
▁block	-10.7154
body	-10.7156
▁accept	-10.7157
▁cell	-10.716
ps	-10.7161
▁uses	-10.7162
▁entry	-10.7163
ão	-10.7164
▁ball	-10.7165
复	-10.7166
思	-10.7166
▁loved	-10.7167
调整	-10.717
선	-10.7171
乡	-10.7172
▁initial	-10.7172
▁Sub	-10.7172
ero	-10.7176
原因	-10.7179
О	-10.7179
▁applications	-10.7179
つ	-10.718
eg	-10.7181
lambda	-10.7182
▁meaning	-10.7182
▁Par	-10.7183
增	-10.7184
地方	-10.7184
ges	-10.7185
▁『	-10.7185
▁patient	-10.7185
▁display	-10.7188
就会	-10.7191
▁fa	-10.7195
ique	-10.7195
▁larger	-10.7196
▁artist	-10.7201
level	-10.7211
▁defined	-10.7212
ai	-10.7213
绿	-10.7213
出来	-10.7219
zh	-10.7219
食品	-10.7221
xi	-10.7223
▁Arts	-10.7232
▁highest	-10.7232
▁void	-10.7233
▁election	-10.7236
▁vehicle	-10.7238
▁target	-10.7239
确保	-10.7239
ins	-10.7242
チ	-10.7242
▁Chi	-10.7243
专	-10.7243
score	-10.7248
记	-10.7248
▁equipment	-10.7251
▁haven	-10.7254
Do	-10.7255
实验	-10.726
▁manager	-10.7263
倒	-10.7264
ning	-10.7265
ล	-10.7265
味	-10.7272
}^{	-10.7272
久	-10.7272
奇	-10.7274
▁aren	-10.7277
mes	-10.7277
▁Power	-10.7279
简单	-10.7281
▁competition	-10.7284
보	-10.7285
▁represent	-10.7288
▁failed	-10.7291
离	-10.7294
ص	-10.7295
加热	-10.7297
努力	-10.7298
洗	-10.7302
▁mis	-10.7302
优势	-10.7302
▁straight	-10.7303
mark	-10.7304
サ	-10.7304
▁sources	-10.731
▁debt	-10.7311
ской	-10.7314
核	-10.7315
▁Hill	-10.7319
토	-10.7323
茫茫人海	-10.7324
▁Professor	-10.7324
uri	-10.7331
ча	-10.7338
▁End	-10.7341
▁purchase	-10.7341
目标	-10.7346
bf	-10.7347
基础	-10.7354
▁Yes	-10.7356
▁setting	-10.7356
▁requires	-10.7358
▁app	-10.7358
▁clearly	-10.7359
▁Son	-10.7362
▁trust	-10.7364
Bsq	-10.7364
句	-10.7365
文章	-10.7365
ッ	-10.7368
btMW	-10.7369
▁input	-10.7369
ants	-10.7369
▁images	-10.7369
您选择我们	-10.737
▁RowBox	-10.7372
▁立马	-10.7372
有什么可以帮助您的	-10.7373
脚踩风火轮	-10.7373
您的呼唤	-10.7373
速速赶	-10.7373
极有缘份	-10.7374
您好呀	-10.7374
▁parties	-10.7375
▁și	-10.7381
吉	-10.7383
▁cash	-10.7384
▁opened	-10.7385
▁Bush	-10.7389
ubuntu	-10.7389
회	-10.7393
▁unless	-10.7394
交易	-10.7394
す	-10.7396
脚	-10.7397
vis	-10.7398
▁Tri	-10.7401
任务	-10.7401
▁Management	-10.7401
▁lived	-10.7417
ser	-10.7419
학	-10.742
tt	-10.7422
];	-10.7423
▁lose	-10.7423
nda	-10.7424
点亮	-10.7427
十分	-10.7428
▁ISBN	-10.7431
▁conduct	-10.7432
ima	-10.7433
▁km	-10.7434
▁Joe	-10.7435
▁update	-10.7435
▁Bur	-10.7438
▁Cha	-10.7438
▁sat	-10.7439
▁equal	-10.7441
▁trans	-10.7443
责任	-10.7444
▁Medical	-10.7446
新的	-10.7447
fr	-10.7449
])	-10.745
اس	-10.7451
▁authority	-10.7452
sk	-10.7452
高三	-10.7457
يون	-10.7458
><	-10.7459
▁default	-10.7463
全部	-10.7469
ging	-10.7471
▁Family	-10.7472
от	-10.7473
理解	-10.7477
하여	-10.7479
奖	-10.7483
▁Pi	-10.7486
资金	-10.7489
ast	-10.7492
arg	-10.7501
▁嗨	-10.7504
한다	-10.7505
除了	-10.7507
架	-10.751
ii	-10.7512
刚	-10.7512
Mo	-10.7514
速度	-10.7515
▁Joseph	-10.7516
▁और	-10.7516
风险	-10.7517
▁fear	-10.7519
完	-10.752
▁Division	-10.752
loc	-10.752
신	-10.7521
beta	-10.7521
较	-10.7523
tin	-10.7523
▁Up	-10.7527
ES	-10.7528
▁sports	-10.7528
▁대	-10.7529
호	-10.753
我的	-10.7534
▁Mer	-10.7537
П	-10.7537
指导	-10.7538
special	-10.754
ér	-10.7541
艺术	-10.7541
▁mass	-10.7541
ette	-10.7541
work	-10.7541
▁officer	-10.7547
하였다	-10.7547
page	-10.7547
▁Christmas	-10.7548
▁reality	-10.7549
▁Back	-10.7551
면	-10.7555
▁species	-10.7556
kel	-10.7559
▁seeing	-10.7559
▁Frank	-10.7561
▁spring	-10.7567
▁creating	-10.7568
实施	-10.7569
断	-10.7569
▁league	-10.7573
▁هي	-10.7573
届	-10.7578
尾	-10.7581
▁window	-10.7584
▁novel	-10.7588
mus	-10.7591
观	-10.7594
▁output	-10.7598
real	-10.7601
晒图	-10.7601
▁mentioned	-10.7602
▁transfer	-10.7602
Д	-10.7603
hl	-10.7605
▁appeared	-10.7607
厂	-10.7607
▁birth	-10.7608
机械	-10.7609
ор	-10.761
只要	-10.7613
群众	-10.7614
▁TO	-10.7616
身体	-10.7619
▁forces	-10.762
kf	-10.7621
还没有收到	-10.7621
▁Another	-10.7623
call	-10.7623
▁leadership	-10.7624
CC	-10.7631
▁几口人	-10.7631
有什么顾虑吗	-10.7631
안	-10.7631
▁से	-10.7631
"/>	-10.7633
造成	-10.7639
▁Rights	-10.764
체	-10.7641
倍	-10.7642
▁chief	-10.7651
TH	-10.7651
▁actions	-10.7652
▁Feb	-10.7657
占	-10.7657
ная	-10.7662
▁///	-10.7663
mb	-10.7665
▁caused	-10.7667
造	-10.7668
our	-10.767
BkRM	-10.767
र्	-10.7673
▁fully	-10.7675
教师	-10.7675
SP	-10.7678
特别	-10.7679
cho	-10.7679
sim	-10.768
▁fund	-10.768
▁manner	-10.7682
雷	-10.7689
CA	-10.769
▁op	-10.769
Time	-10.7696
무	-10.7699
▁Like	-10.7699
数学	-10.7701
fl	-10.7703
▁factors	-10.7711
维护	-10.7714
qua	-10.7716
母	-10.7716
▁Jim	-10.7716
▁sudo	-10.7719
▁tour	-10.7719
東	-10.7721
▁freedom	-10.7722
local	-10.7724
mel	-10.7727
REWRITE	-10.7727
只是	-10.7728
谷	-10.7728
笑	-10.7731
위	-10.7734
▁peace	-10.7735
gov	-10.7742
▁truly	-10.7752
Of	-10.7756
纸	-10.7757
▁Fund	-10.7758
some	-10.7759
▁machine	-10.776
▁Western	-10.7766
View	-10.7766
▁Cat	-10.7767
ская	-10.7768
mod	-10.7771
▁mode	-10.7772
▁amazing	-10.7773
▁elements	-10.7775
▁Ba	-10.7777
They	-10.7777
NAME	-10.7779
Node	-10.7781
ना	-10.7782
▁dark	-10.7787
▁Report	-10.7789
▁joined	-10.779
ual	-10.7791
▁Kar	-10.7791
素	-10.7797
▁signed	-10.7798
▁prices	-10.7801
ث	-10.7802
的发展	-10.7803
▁reference	-10.7803
eu	-10.7804
广	-10.7804
▁Hu	-10.7805
Note	-10.7806
▁Chris	-10.7807
vel	-10.7817
▁green	-10.7824
）、	-10.7832
ification	-10.7835
▁skin	-10.7835
叫	-10.7836
ம்	-10.7841
zu	-10.7843
ks	-10.7846
▁characters	-10.785
▁Review	-10.7856
mit	-10.7856
▁marketing	-10.7856
▁surface	-10.7858
▁selected	-10.7858
降	-10.786
▁Each	-10.7862
▁reached	-10.7862
ING	-10.7864
的哦亲	-10.7865
ман	-10.7865
▁placed	-10.7869
程	-10.7869
规划	-10.787
▁professor	-10.787
增长	-10.7875
▁join	-10.7875
▁installed	-10.7879
リー	-10.788
▁till	-10.7882
▁За	-10.7884
之间	-10.7885
▁Once	-10.7888
се	-10.7888
限	-10.7891
▁honor	-10.7892
ノ	-10.7894
ย	-10.7902
š	-10.7902
ер	-10.7905
▁developing	-10.7906
体系	-10.7906
▁bağlantılar	-10.7908
ky	-10.7909
win	-10.791
▁county	-10.7916
▁policies	-10.7916
AS	-10.7917
▁library	-10.7918
▁methods	-10.7918
▁solid	-10.7921
▁classes	-10.7923
));	-10.7928
▁че	-10.7928
cent	-10.793
互联网	-10.7936
▁Chinese	-10.7944
船	-10.7947
▁ended	-10.7947
▁Bel	-10.7949
MA	-10.7949
▁teacher	-10.7952
分子	-10.7953
▁Ph	-10.7963
）。	-10.7964
BkQQV	-10.7964
グ	-10.7966
ро	-10.7966
df	-10.7969
皮肤	-10.7971
BC	-10.7972
▁真是	-10.7975
▁إ	-10.7976
贵	-10.7976
という	-10.7977
cer	-10.7979
inter	-10.7979
▁Referensi	-10.7981
▁Michigan	-10.7981
▁Ra	-10.7981
▁است	-10.7985
▁campus	-10.7985
人才	-10.7986
Path	-10.7988
▁AND	-10.7989
容易	-10.7991
▁fill	-10.7992
ता	-10.7992
Color	-10.7993
أ	-10.7994
到了	-10.7994
Or	-10.7995
eta	-10.7995
count	-10.7996
▁rise	-10.7997
▁views	-10.7999
▁pe	-10.8001
को	-10.8002
▁showed	-10.8007
স	-10.801
ida	-10.8013
▁）","	-10.8017
tz	-10.8018
pen	-10.8019
Info	-10.8019
▁plant	-10.8019
ties	-10.8021
▁remove	-10.8021
ls	-10.8023
base	-10.8027
▁Water	-10.8028
▁Network	-10.8028
▁Tra	-10.8029
▁전	-10.8032
▁ahead	-10.8034
cap	-10.8044
▁Series	-10.8044
▁definitely	-10.8044
▁customer	-10.8052
智	-10.8054
不同的	-10.8054
▁bis	-10.8054
▁Indian	-10.8055
物质	-10.8056
vor	-10.8059
▁happens	-10.806
保温	-10.8067
▁Ju	-10.8069
غ	-10.807
▁violence	-10.8075
正式	-10.8077
富	-10.8079
ane	-10.8083
block	-10.8084
▁Sen	-10.8088
存	-10.8088
When	-10.8089
每天	-10.8089
▁demand	-10.809
▁wonderful	-10.809
自由	-10.8092
you	-10.8093
▁attempt	-10.8094
uff	-10.8095
▁doctor	-10.8098
му	-10.8098
▁유	-10.8099
▁Army	-10.81
▁evening	-10.8102
▁Francisco	-10.8104
post	-10.8105
▁или	-10.8106
▁steps	-10.8108
bal	-10.8109
ската	-10.811
레	-10.811
试	-10.8114
iv	-10.8114
▁continues	-10.8114
cd	-10.8116
顺	-10.812
族	-10.812
▁hot	-10.812
港	-10.8121
med	-10.8123
很满意	-10.8123
els	-10.8125
▁executive	-10.8126
Code	-10.8131
块	-10.8132
▁района	-10.8133
儿	-10.8137
领导	-10.8138
▁sun	-10.814
消费者	-10.814
pr	-10.8141
一样	-10.8144
宁	-10.8146
▁knows	-10.8147
▁partner	-10.8147
ве	-10.8149
是一个	-10.8151
▁university	-10.8152
water	-10.8152
▁distance	-10.8153
Size	-10.8153
▁году	-10.8155
Krp	-10.8159
▁calls	-10.8161
▁influence	-10.8162
▁finding	-10.8165
function	-10.8165
▁television	-10.8165
范围	-10.8166
î	-10.8167
▁enter	-10.8167
ery	-10.8168
可以给您的	-10.817
查	-10.8172
说说嘛	-10.8172
게	-10.8172
药膳两	-10.8173
▁ones	-10.8174
衣	-10.8176
▁useful	-10.8177
gal	-10.8178
▁closed	-10.8178
预	-10.8178
home	-10.8182
fully	-10.8183
形式	-10.8185
▁separate	-10.8187
▁speech	-10.8187
▁Sch	-10.8189
金属	-10.819
▁Police	-10.8191
▁Pen	-10.8192
传统	-10.8194
▁Einzelnachweise	-10.8195
▁slow	-10.8204
osa	-10.8204
ms	-10.8206
star	-10.8207
控	-10.8211
▁Ku	-10.8212
경	-10.8213
▁Hospital	-10.8214
就可以	-10.8223
▁advice	-10.8224
▁untuk	-10.8224
金融	-10.8225
资料	-10.8226
▁Д	-10.823
din	-10.823
确定	-10.823
▁Jones	-10.8231
返	-10.8233
yan	-10.8235
▁perform	-10.8236
错	-10.8239
▁Santa	-10.824
▁um	-10.824
新闻	-10.8244
留	-10.8248
紧	-10.8248
ological	-10.8251
夫	-10.8252
Ro	-10.8255
機	-10.8256
景	-10.8257
▁cells	-10.8258
界	-10.8259
づ	-10.826
ding	-10.8261
课程	-10.8263
思想	-10.8263
状态	-10.827
वा	-10.8271
▁previously	-10.8272
取得	-10.8275
▁determined	-10.8278
▁cultural	-10.8278
od	-10.8281
▁Jo	-10.8284
▁Out	-10.8285
▁Em	-10.8286
uit	-10.8288
config	-10.8288
讲	-10.829
招	-10.8293
制造	-10.8294
▁Minister	-10.83
▁này	-10.83
▁models	-10.8301
ischen	-10.8306
▁zu	-10.8306
压力	-10.8307
▁&&	-10.8309
▁advantage	-10.8312
下列	-10.8314
长期	-10.8315
运行	-10.8315
▁Tu	-10.8316
我们的	-10.8323
အ	-10.8324
▁hair	-10.833
▁tarafından	-10.8331
▁sa	-10.8332
▁thousands	-10.8333
▁Article	-10.8335
ple	-10.8341
bel	-10.8344
▁boy	-10.8348
▁Pranala	-10.835
pc	-10.8351
尽	-10.8353
ام	-10.8353
意识	-10.8354
cat	-10.836
RO	-10.8361
▁tools	-10.8362
Test	-10.8362
算	-10.8362
▁supply	-10.8365
▁baby	-10.8366
视	-10.8366
バ	-10.8367
当前	-10.8368
zer	-10.837
Is	-10.8375
▁contains	-10.8375
▁Party	-10.8379
당	-10.8381
▁olan	-10.8381
▁distribution	-10.8382
奥	-10.8385
const	-10.8387
▁teachers	-10.8387
▁sell	-10.8387
银	-10.8393
▁Williams	-10.84
▁limit	-10.8401
▁Mexico	-10.8401
带来	-10.8403
크	-10.8403
进行了	-10.8405
title	-10.841
vert	-10.8412
▁coverage	-10.8412
▁Their	-10.8415
小客服	-10.8416
▁box	-10.8418
▁environmental	-10.8421
▁healthy	-10.8422
支付	-10.8423
④	-10.8423
▁Middle	-10.8424
▁Second	-10.8428
▁Che	-10.843
▁committee	-10.8431
▁raise	-10.8432
▁biggest	-10.8435
▁decisions	-10.8437
整个	-10.8439
ग	-10.8439
▁excellent	-10.8442
▁П	-10.8449
▁Earth	-10.8451
lt	-10.8451
丝	-10.8452
守	-10.8452
安排	-10.8453
玩家	-10.8455
桥	-10.846
ğ	-10.8463
▁station	-10.8464
kom	-10.8464
▁clients	-10.8466
input	-10.8466
定时	-10.8471
方案	-10.8472
▁principal	-10.8472
ani	-10.8473
ство	-10.8475
含	-10.8476
elle	-10.8477
▁Sp	-10.8477
▁purposes	-10.8485
▁format	-10.8485
из	-10.8488
▁climate	-10.8488
▁helping	-10.8489
▁아	-10.849
面积	-10.8491
跑	-10.8492
▁Game	-10.8495
▁$$	-10.8496
▁중	-10.8499
▁Roman	-10.8507
nie	-10.8507
▁musical	-10.8507
вод	-10.8508
gl	-10.8509
OF	-10.851
PM	-10.851
bl	-10.8511
▁Jack	-10.8512
▁vs	-10.8512
rus	-10.8517
pro	-10.8519
盖	-10.8519
yo	-10.8525
▁como	-10.8525
▁behavior	-10.8525
▁powerful	-10.8526
农业	-10.853
mir	-10.8531
▁operating	-10.8532
▁scene	-10.8532
का	-10.8533
ного	-10.8534
▁owner	-10.8535
车辆	-10.8538
ър	-10.8539
▁faculty	-10.8539
▁Louis	-10.8542
ça	-10.8544
亮	-10.8546
最终	-10.8554
hand	-10.8554
▁mission	-10.8557
cur	-10.8559
TS	-10.8561
▁download	-10.8562
降低	-10.8563
▁pet	-10.8564
ena	-10.8567
▁residents	-10.8569
杀	-10.8571
▁selection	-10.8571
lat	-10.8571
电炖锅	-10.8571
ран	-10.8572
▁Special	-10.8573
▁graduate	-10.8575
▁citizens	-10.8576
▁Academy	-10.8577
ха	-10.8579
选项	-10.8581
准备	-10.8588
case	-10.8588
▁Iran	-10.8588
▁forms	-10.8589
EL	-10.8591
교	-10.8591
实际	-10.8591
lic	-10.8591
▁brand	-10.8597
ando	-10.8601
▁ile	-10.8604
né	-10.8604
▁becomes	-10.8606
exp	-10.8609
▁Chief	-10.861
▁juga	-10.861
想要	-10.861
▁measure	-10.8612
▁wonder	-10.8612
мен	-10.8617
▁crime	-10.8618
▁noted	-10.8621
isch	-10.8622
ré	-10.8622
▁bottom	-10.8623
破	-10.8624
表现	-10.8624
ъ	-10.8625
掌握	-10.8626
女性	-10.8632
圈	-10.8635
动物	-10.8642
▁master	-10.8642
末	-10.8643
ric	-10.8646
CO	-10.8652
お	-10.8654
sal	-10.8656
▁dollars	-10.8657
ше	-10.8658
ض	-10.8659
さ	-10.8661
▁Val	-10.8663
比赛	-10.8666
▁Policy	-10.8666
メ	-10.867
▁sleep	-10.8673
偏	-10.8673
ии	-10.8673
▁damage	-10.8674
▁Col	-10.8675
az	-10.8676
сти	-10.8678
▁exercise	-10.8679
▁debate	-10.868
▁nuclear	-10.8681
edu	-10.8681
▁Ten	-10.8682
▁©	-10.8685
차	-10.8686
공	-10.8686
是一种	-10.8693
然	-10.8693
في	-10.8698
non	-10.8698
GB	-10.8703
▁Republican	-10.8707
▁Children	-10.8708
最新	-10.8712
从而	-10.8712
▁carry	-10.8713
▁filed	-10.8719
Pa	-10.8723
表面	-10.8723
▁facility	-10.8724
员工	-10.8724
旧	-10.8725
▁stated	-10.8728
话	-10.8728
\",	-10.873
致	-10.8734
在使用	-10.8736
ک	-10.8738
阶段	-10.874
▁mine	-10.8741
core	-10.8741
島	-10.8744
joyoung	-10.8745
受到	-10.8746
改革	-10.8746
▁mention	-10.8746
tri	-10.875
容	-10.8755
▁presence	-10.8758
ய	-10.8758
▁despite	-10.876
▁Tour	-10.8761
计算	-10.8762
▁devices	-10.8764
▁Valley	-10.8772
ско	-10.8775
▁Daniel	-10.8776
佳	-10.8776
▁battle	-10.8778
▁Cre	-10.8778
ió	-10.8779
MI	-10.8779
tag	-10.878
後	-10.8781
Т	-10.8781
တ	-10.8783
▁earth	-10.8784
稳定	-10.8787
▁Twitter	-10.879
▁criminal	-10.8791
这样的	-10.8792
▁Ber	-10.8794
整体	-10.8796
$,	-10.8798
▁village	-10.8802
▁gun	-10.8803
▁audience	-10.8805
▁solutions	-10.8805
▁strategy	-10.8805
section	-10.8805
gan	-10.8806
改变	-10.8807
小客服看下呢	-10.8808
With	-10.8811
▁license	-10.8816
▁sexual	-10.8816
▁espèce	-10.8819
馆	-10.8822
▁facilities	-10.8822
也有	-10.8826
▁Play	-10.8826
▁articles	-10.8827
独	-10.8828
AC	-10.8829
Н	-10.883
▁schedule	-10.8832
▁driver	-10.8834
TO	-10.8838
check	-10.8841
هم	-10.8843
孔	-10.8845
▁discuss	-10.8845
Me	-10.8849
友	-10.8849
都有	-10.886
▁extremely	-10.8861
停	-10.8864
▁responsibility	-10.8864
骨	-10.8867
vol	-10.8868
▁Ма	-10.8872
▁Sports	-10.8873
ша	-10.8874
ün	-10.8875
ে	-10.8875
的问题	-10.8875
堂	-10.8876
api	-10.8877
ward	-10.8877
▁الج	-10.8878
▁spot	-10.8878
▁Band	-10.8879
▁Jr	-10.8881
용	-10.8882
لو	-10.8886
秀	-10.8889
▁Loài	-10.8889
^"	-10.8889
顶	-10.889
ett	-10.8891
DA	-10.8892
程度	-10.8893
▁issued	-10.8894
▁obtain	-10.8894
▁trouble	-10.8894
▁след	-10.8896
▁sit	-10.8905
▁Both	-10.8907
ST	-10.8907
接受	-10.8907
▁Young	-10.8908
▁committed	-10.8908
▁abuse	-10.891
负	-10.8911
ня	-10.8913
▁Mrs	-10.8914
▁showing	-10.8916
▁Ru	-10.8916
ない	-10.8917
现象	-10.8919
▁helps	-10.8922
ด	-10.8923
▁operation	-10.8924
▁mobile	-10.8925
▁Cup	-10.8926
豆浆	-10.8926
过程	-10.893
▁task	-10.8931
▁tend	-10.8934
lam	-10.8935
mathbb	-10.8936
▁signal	-10.8936
ा	-10.8937
CS	-10.8937
▁Jersey	-10.8938
锅	-10.8942
Key	-10.8949
ified	-10.8952
und	-10.8953
yard	-10.8954
▁border	-10.8959
ร	-10.8964
细	-10.8965
欢迎	-10.8966
贴	-10.8966
塔	-10.897
▁Call	-10.897
▁области	-10.8973
▁Ко	-10.8973
▁Dış	-10.8974
include	-10.8975
place	-10.8975
▁performed	-10.8976
Read	-10.8976
中央	-10.8976
吴	-10.8976
ис	-10.8979
他的	-10.898
▁religion	-10.8983
位于	-10.8985
ade	-10.8986
▁numerous	-10.899
▁Steve	-10.8991
▁yards	-10.8994
유	-10.8995
▁justice	-10.8996
▁Blue	-10.8997
▁Ban	-10.9004
▁Ga	-10.9005
▁agencies	-10.9005
sky	-10.9006
ру	-10.9006
提出	-10.9008
▁follows	-10.9008
▁internet	-10.9013
▁Cell	-10.9014
ned	-10.9014
▁Sin	-10.9016
影	-10.9016
ense	-10.9022
▁approximately	-10.9023
付	-10.9023
書	-10.9026
Index	-10.9028
▁pot	-10.9028
ő	-10.9029
}_	-10.903
▁interests	-10.9032
ว	-10.9033
户	-10.9035
DB	-10.9038
Not	-10.9039
设	-10.9041
gg	-10.9042
‘	-10.9043
略	-10.9043
来自	-10.9045
▁사	-10.9047
gh	-10.9049
具	-10.9052
▁Technology	-10.9061
ona	-10.9063
CE	-10.9067
date	-10.9072
▁balance	-10.9074
Б	-10.9075
▁earned	-10.9077
▁eat	-10.9077
▁documents	-10.908
▁Next	-10.9081
▁Anti	-10.9083
▁eventually	-10.9085
▁pages	-10.9086
▁rich	-10.9088
▁winning	-10.9093
运用	-10.9093
▁covered	-10.9094
环保	-10.9098
小编	-10.91
▁Old	-10.91
▁Jewish	-10.91
▁sector	-10.9102
▁§	-10.9103
space	-10.9104
▁prepared	-10.9106
审	-10.9111
▁finish	-10.9112
汉	-10.9114
▁Civil	-10.9115
▁Georgia	-10.912
助	-10.9121
▁becoming	-10.9122
им	-10.9129
▁explain	-10.913
▁park	-10.9131
isi	-10.9131
苏	-10.9133
يات	-10.9137
PA	-10.9138
深入	-10.914
▁Ed	-10.914
图片	-10.9145
多少	-10.9146
以来	-10.9151
▁foi	-10.9153
工艺	-10.9153
CD	-10.916
装修	-10.9163
▁Global	-10.9164
Liên	-10.9165
欧	-10.9165
▁assistance	-10.9166
▁songs	-10.9167
▁scientific	-10.9169
▁writer	-10.9172
▁kết	-10.9174
▁quick	-10.9174
RE	-10.9176
▁agreed	-10.9177
▁aware	-10.9177
▁leaving	-10.9179
ments	-10.9182
▁Sea	-10.9185
식	-10.9188
▁cu	-10.9189
符合	-10.9192
▁gold	-10.9193
ene	-10.9195
最高	-10.9197
▁Iraq	-10.9198
梦	-10.92
温馨提示	-10.92
간	-10.9201
▁Bob	-10.9207
整	-10.9212
注册	-10.9212
▁fuel	-10.9214
ور	-10.9214
▁judge	-10.9215
▁famous	-10.9216
码	-10.9217
培养	-10.9219
计	-10.9223
▁girls	-10.9225
绿色	-10.9226
▁mental	-10.9227
▁constant	-10.9228
▁ngoài	-10.9229
▁recommend	-10.9229
▁challenges	-10.923
▁terletak	-10.9231
▁Wall	-10.9231
食材	-10.9235
OP	-10.9236
키	-10.9237
eri	-10.9238
â	-10.9242
▁Port	-10.9243
ジ	-10.9243
dar	-10.9247
费用	-10.9247
穿	-10.9249
][	-10.925
▁Asia	-10.9255
报名	-10.9256
执	-10.9256
文明	-10.9258
ident	-10.9259
剧	-10.9259
▁meant	-10.9261
▁Henry	-10.9262
NO	-10.9266
疾病	-10.9266
规定	-10.9266
has	-10.9271
▁scale	-10.9274
air	-10.9274
必	-10.9274
导	-10.9275
RA	-10.9278
移动	-10.9281
load	-10.9282
▁worse	-10.9283
▁Live	-10.9283
夏	-10.9284
封	-10.9284
ट	-10.9286
cro	-10.9287
▁Those	-10.9289
こ	-10.9289
▁Care	-10.9291
역	-10.9292
烟	-10.9292
▁concept	-10.9292
升级	-10.9294
望	-10.9294
卖	-10.9294
ों	-10.9295
▁Festival	-10.9296
mont	-10.9296
町	-10.9301
▁session	-10.9303
▁cool	-10.9304
▁Real	-10.9305
ensis	-10.9306
sia	-10.9307
▁street	-10.9307
lay	-10.9307
税	-10.9309
▁IN	-10.931
▁ini	-10.9314
维	-10.9314
▁Tim	-10.9314
▁cold	-10.9315
GZ	-10.9318
不可	-10.9319
行动	-10.932
천	-10.9321
事件	-10.9322
▁sister	-10.9324
루	-10.9328
丽	-10.9328
вер	-10.9329
▁approved	-10.9333
胶	-10.9333
明显	-10.9334
▁thanks	-10.9334
県	-10.9335
最右边	-10.9337
द	-10.9338
可以给小	-10.9338
调查	-10.9339
▁maintain	-10.934
物理	-10.9341
你们	-10.9344
评价服务	-10.9344
送心	-10.9345
用于	-10.9346
这款宝贝	-10.9348
您的满意就是我们的追求	-10.9348
"❤	-10.9349
小时智能预约	-10.9351
性价比高哦	-10.9351
鼓励吗	-10.9352
客服一个	-10.9352
▁için	-10.9352
▁Mu	-10.9353
▁driving	-10.9355
▁reform	-10.9355
广告	-10.9358
▁generation	-10.9361
など	-10.9365
TA	-10.9366
할	-10.9369
空气	-10.937
▁Sal	-10.9371
位置	-10.9374
】->	-10.9377
▁concerned	-10.9379
game	-10.9382
背	-10.9382
bil	-10.9382
ني	-10.9383
Count	-10.9384
▁wall	-10.9384
ue	-10.9387
av	-10.9388
lim	-10.9388
even	-10.9391
包装	-10.9394
pad	-10.9394
gif	-10.9398
▁Supreme	-10.9398
令	-10.94
ের	-10.9402
ব	-10.9403
▁native	-10.9403
▁client	-10.9405
您有一笔订单未付款	-10.9408
▁achieve	-10.9409
单选题	-10.9419
ール	-10.942
ду	-10.9421
jar	-10.9422
Message	-10.9423
糖	-10.9425
威	-10.9427
▁М	-10.9428
▁Ce	-10.9431
▁che	-10.9433
bro	-10.9434
▁holding	-10.9434
，“	-10.9434
verse	-10.9435
比如	-10.9435
▁offering	-10.9437
モ	-10.9437
▁taxes	-10.9439
ş	-10.9441
▁Bible	-10.9443
▁grand	-10.9447
▁Germany	-10.9448
양	-10.9451
leg	-10.9451
票	-10.9452
bert	-10.9453
И	-10.9456
語	-10.9456
运营	-10.946
也会	-10.9461
vec	-10.9463
▁insect	-10.9466
fig	-10.9467
统一	-10.9469
▁الح	-10.947
圆	-10.9473
▁fell	-10.9474
▁Aug	-10.9476
▁missing	-10.9477
乱	-10.9478
▁pel	-10.9479
url	-10.9483
▁View	-10.9484
一定要	-10.9485
▁proper	-10.9485
▁failure	-10.9487
▁none	-10.949
ला	-10.9493
针对	-10.9495
知道	-10.9496
▁pair	-10.9496
屋	-10.9498
▁applied	-10.95
rule	-10.9501
研发	-10.9502
define	-10.9507
SC	-10.9508
▁dos	-10.951
良	-10.9512
rich	-10.9513
▁bi	-10.9524
write	-10.9524
▁Mal	-10.9528
▁homes	-10.953
ob	-10.9531
ने	-10.9531
រ	-10.9532
▁importance	-10.9533
exc	-10.9535
峰	-10.9535
▁injury	-10.9535
生态	-10.9536
وي	-10.9539
ischer	-10.9539
range	-10.9541
▁wind	-10.9545
▁Where	-10.9546
这里	-10.9549
▁handle	-10.955
▁links	-10.955
密	-10.9554
▁fellow	-10.9555
version	-10.9556
▁officers	-10.9567
是不是	-10.9569
บ	-10.9569
▁easier	-10.957
SE	-10.9572
▁functions	-10.9574
개	-10.9575
▁photos	-10.958
프	-10.958
▁Make	-10.9581
die	-10.9583
last	-10.9586
▁estate	-10.9586
▁dog	-10.9586
医疗	-10.9586
▁Amerika	-10.9588
sigma	-10.9589
▁communication	-10.9592
ick	-10.9598
▁نسمة	-10.9598
▁resolution	-10.9604
▁Dis	-10.9606
▁relevant	-10.9607
▁concerns	-10.9608
MC	-10.9611
system	-10.9611
How	-10.9613
dem	-10.9615
展示	-10.9616
▁institutions	-10.9618
状	-10.9621
普	-10.9623
ハ	-10.9623
eo	-10.9627
▁Use	-10.9629
自身	-10.9629
库	-10.9631
▁bio	-10.9634
อ	-10.9635
▁Check	-10.9636
▁drop	-10.9639
ர	-10.9639
▁dance	-10.9642
急	-10.9643
散	-10.9644
▁exchange	-10.9646
▁decide	-10.9647
▁Jackson	-10.9648
▁attend	-10.9649
нов	-10.965
洋	-10.9651
partial	-10.9651
▁educational	-10.9654
PT	-10.9658
bol	-10.9659
秋	-10.966
wAvS	-10.9663
gihp	-10.9664
ient	-10.9664
▁calling	-10.9664
因素	-10.9666
▁dream	-10.9667
委	-10.9669
对于机器的选择有哪些考虑	-10.9669
時	-10.9669
不妨您说下	-10.9669
亲喜欢的话	-10.967
喜	-10.967
儿童	-10.9675
▁prove	-10.9677
え	-10.9681
▁보	-10.9682
▁alternative	-10.9686
▁Cal	-10.9687
%)	-10.9688
▁asking	-10.9688
丰富	-10.9691
ที่	-10.9692
▁Ш	-10.9694
▁investigation	-10.9695
商业	-10.9695
▁thank	-10.9696
▁Thank	-10.9697
aux	-10.9698
js	-10.9699
zz	-10.9699
▁waiting	-10.9701
康	-10.9702
觉得	-10.9703
℃	-10.9704
DS	-10.9707
特色	-10.971
▁measures	-10.9711
▁procedure	-10.9711
▁capacity	-10.9712
ther	-10.9715
一点	-10.9715
▁Matt	-10.9716
▁ten	-10.9722
mathbf	-10.9723
lon	-10.9724
▁со	-10.9727
▁notes	-10.9727
▁Comment	-10.9729
▁element	-10.973
▁Pat	-10.973
▁touch	-10.9731
IL	-10.9733
考虑	-10.9734
▁Photo	-10.9735
▁Copyright	-10.9741
首先	-10.9742
((	-10.9744
행	-10.9747
每个	-10.9749
▁forced	-10.975
카	-10.9751
Class	-10.9753
under	-10.9753
****************	-10.9754
▁Miss	-10.9756
cast	-10.9757
ito	-10.9758
ке	-10.9762
▁фон	-10.9765
环	-10.9768
▁Set	-10.9769
▁Ме	-10.977
印	-10.9771
▁cities	-10.9771
▁willing	-10.9772
作者	-10.9778
▁Fire	-10.9779
▁watching	-10.9782
▁prison	-10.9788
随	-10.9791
▁Kon	-10.9791
ui	-10.9793
▁Every	-10.9795
▁negative	-10.9797
gram	-10.9803
IA	-10.9803
▁practices	-10.9805
▁volume	-10.9805
▁animals	-10.9808
▁Share	-10.981
职业	-10.9811
▁youth	-10.9811
▁Have	-10.9811
▁weather	-10.9815
▁persons	-10.9815
▁pop	-10.9816
க	-10.9817
铜匠厚釜	-10.9818
伊	-10.9824
▁List	-10.9825
▁intended	-10.9827
此次	-10.9827
ту	-10.9829
ير	-10.9831
▁north	-10.9833
▁removed	-10.9834
ür	-10.9836
▁heat	-10.9836
供	-10.9836
有些	-10.9837
▁shared	-10.9837
分体式	-10.984
▁realize	-10.984
され	-10.984
▁Plan	-10.984
样	-10.9841
작	-10.9846
▁Im	-10.9846
雄	-10.9848
▁gay	-10.9848
▁concern	-10.985
▁indeed	-10.985
▁legislation	-10.9851
パ	-10.9852
ón	-10.9852
AD	-10.9853
related	-10.9854
▁転送	-10.9854
ih	-10.9854
ular	-10.9856
scale	-10.986
刀	-10.9864
▁combination	-10.9869
물	-10.9871
ici	-10.9871
财务	-10.9875
テ	-10.9878
▁blue	-10.9879
假	-10.9881
ify	-10.9882
هي	-10.9883
▁/**	-10.9884
▁train	-10.9887
러	-10.989
▁labor	-10.9894
▁Before	-10.9898
软	-10.9901
优	-10.9901
▁supported	-10.9907
▁Jean	-10.9911
▁suggest	-10.9912
义	-10.9914
포	-10.9915
▁Take	-10.9916
▁sich	-10.9917
▁$，	-10.9918
追	-10.992
双方	-10.9921
▁treat	-10.9921
gt	-10.9922
居民	-10.9924
收入	-10.9924
秒	-10.9926
另外	-10.9927
모	-10.9928
掉	-10.9929
尼	-10.993
ador	-10.993
个月	-10.9933
▁micro	-10.9933
AM	-10.9933
ades	-10.9935
té	-10.9938
aria	-10.9939
▁heavy	-10.9948
logic	-10.9948
刑	-10.995
▁plays	-10.9955
▁survey	-10.9957
冲	-10.9957
BkkG	-10.9958
技能	-10.996
▁decades	-10.996
▁conflict	-10.9962
industry	-10.9963
sha	-10.9963
ビ	-10.9964
From	-10.9967
▁boot	-10.9969
ول	-10.997
汉族	-10.997
▁technical	-10.9971
设置	-10.9972
▁fresh	-10.9973
▁revenue	-10.9977
小时预约	-10.9979
▁Gu	-10.9979
▁Referencias	-10.9981
▁factor	-10.9981
▁Г	-10.9981
Go	-10.9983
▁recognized	-10.9983
外壳	-10.9986
め	-10.9986
lık	-10.9988
集中	-10.9989
物流	-10.9989
▁Administration	-10.9993
▁employee	-10.9993
▁artists	-10.9993
က	-10.9995
疫情	-10.9996
▁Liste	-10.9996
ama	-10.9996
一壶多用	-10.9996
您优先发货	-10.9997
下单帮	-10.9997
▁*/	-10.9999
▁guide	-11.0001
야	-11.0002
备	-11.0002
人物	-11.0003
现代	-11.0005
غر	-11.0006
明确	-11.0007
▁minor	-11.0007
▁Andrew	-11.0007
ert	-11.0011
航	-11.0014
功	-11.002
ர்	-11.002
ay	-11.002
ill	-11.0022
▁حسب	-11.0024
"],	-11.0026
media	-11.0027
民族	-11.0028
▁Code	-11.0028
MP	-11.0029
▁assume	-11.003
鸡	-11.0032
big	-11.0032
▁к	-11.0032
私	-11.0033
▁Southern	-11.0036
high	-11.0037
မ	-11.0038
护	-11.0038
▁",",	-11.0047
kal	-11.0048
▁Ch	-11.0049
ati	-11.0055
▁studio	-11.0055
ska	-11.0057
stone	-11.0058
▁عدد	-11.0059
判断	-11.006
脸	-11.0062
成立	-11.0063
aries	-11.0067
▁traffic	-11.0069
▁testing	-11.0072
玻璃	-11.0072
▁welcome	-11.0072
组成	-11.0073
▁increasing	-11.0074
▁regional	-11.0075
Int	-11.0076
ali	-11.0077
}=	-11.0079
ज	-11.008
مر	-11.008
▁experienced	-11.008
▁Illinois	-11.0083
▁gain	-11.0085
▁definition	-11.0091
doc	-11.0091
dal	-11.0093
MS	-11.0094
。	-11.0095
▁Royal	-11.0095
▁entered	-11.0096
One	-11.01
▁Б	-11.0101
ល	-11.0102
▁female	-11.0104
ब	-11.0107
aire	-11.0112
▁focused	-11.0112
经常	-11.0114
news	-11.0117
梅	-11.0117
▁internal	-11.0119
▁smaller	-11.012
▁listed	-11.0121
▁registration	-11.0125
上盖	-11.0127
搭配	-11.0127
anti	-11.0128
スト	-11.0128
ante	-11.0128
ই	-11.013
현	-11.0131
ত	-11.0133
▁employment	-11.0134
▁affect	-11.0135
လ	-11.0136
▁tough	-11.0139
sz	-11.014
▁المتحدة	-11.0141
泰	-11.0142
▁charges	-11.0143
』（	-11.0143
▁replace	-11.0144
▁strength	-11.0148
啦	-11.0149
Pro	-11.015
▁Page	-11.0152
gate	-11.0154
相对	-11.0159
مل	-11.0159
增强	-11.016
▁القرن	-11.0163
生命	-11.0163
▁spread	-11.0165
▁drugs	-11.0168
ရ	-11.0171
▁Arizona	-11.0173
当然	-11.0173
cip	-11.0174
лен	-11.0177
sy	-11.0183
▁Wood	-11.0184
action	-11.0186
த	-11.0187
ове	-11.019
▁sobre	-11.0195
▁historical	-11.0195
▁markets	-11.0202
招聘	-11.0203
▁count	-11.0206
▁greatest	-11.0207
测试	-11.0212
▁films	-11.0212
▁Ссылки	-11.0213
赵	-11.0214
▁Cho	-11.0216
数字	-11.0219
ido	-11.022
▁आ	-11.022
▁ideal	-11.0223
炎	-11.0223
oh	-11.0224
吸	-11.0225
ী	-11.0227
▁victory	-11.0228
▁charged	-11.0231
▁Add	-11.0234
▁Mor	-11.0235
stra	-11.0236
也可以	-11.0236
是的亲	-11.0238
▁mostly	-11.0238
اب	-11.0239
></	-11.024
ld	-11.024
れ	-11.0241
}^	-11.0247
される	-11.0251
وس	-11.0252
▁starts	-11.0257
充分	-11.0258
▁south	-11.0259
▁Design	-11.0259
申请执行人	-11.0259
ern	-11.0259
营销	-11.0265
以后	-11.0265
▁grant	-11.0266
▁essential	-11.0267
▁Dar	-11.0267
bul	-11.0272
▁Vo	-11.0273
零	-11.0273
▁Bra	-11.0273
▁adults	-11.0276
vector	-11.0278
DC	-11.0278
ท	-11.0278
▁creation	-11.0279
gre	-11.028
sol	-11.0281
京	-11.0282
▁taught	-11.0283
▁Mel	-11.0284
▁tool	-11.0285
大会	-11.0286
це	-11.0286
人类	-11.0287
▁Quote	-11.0287
▁politics	-11.0288
▁Mass	-11.0289
민	-11.029
拿	-11.029
코	-11.0293
▁seek	-11.0293
▁conducted	-11.0294
try	-11.0294
▁metal	-11.0295
▁promote	-11.0296
сто	-11.0296
▁Inter	-11.03
lies	-11.0304
▁Sir	-11.0304
▁Э	-11.0305
hy	-11.0307
sion	-11.031
▁Ре	-11.0312
▁Executive	-11.0315
横	-11.0317
▁identify	-11.0318
▁putting	-11.0321
ден	-11.0321
lem	-11.0322
PE	-11.0322
ME	-11.0322
sqrt	-11.0324
烧	-11.0326
▁ре	-11.0327
́	-11.0329
/:)-(	-11.033
雅	-11.0332
▁Us	-11.0332
ット	-11.0335
池	-11.0336
ِ	-11.0337
打开	-11.0339
%。	-11.034
EC	-11.0341
蓝	-11.0341
▁Je	-11.0343
▁cast	-11.0344
▁அ	-11.0344
ன்	-11.0344
仅	-11.0344
▁spirit	-11.0345
kur	-11.0346
更新	-11.0347
hen	-11.0348
▁pictures	-11.0349
ស	-11.0352
负责	-11.0352
都会	-11.0353
工具	-11.036
α	-11.0361
▁recorded	-11.0367
▁corporate	-11.0368
独立	-11.0371
营养	-11.0374
▁Mann	-11.0376
当地	-11.0378
▁Бо	-11.0379
▁sounds	-11.0379
的作用	-11.0381
本次	-11.0381
▁Food	-11.0382
▁square	-11.0382
▁experiences	-11.0386
Ra	-11.0388
联合	-11.0389
▁Cu	-11.0398
道路	-11.0398
最大	-11.04
)}	-11.0403
▁Maybe	-11.0405
Se	-11.0406
web	-11.0406
电影	-11.0406
init	-11.0407
rin	-11.0408
مراجع	-11.041
▁Davis	-11.0412
بل	-11.0412
END	-11.0413
▁Ya	-11.0417
家长	-11.0419
许多	-11.0421
▁Cap	-11.0422
セ	-11.0423
фа	-11.0426
消息	-11.0426
▁statements	-11.0428
▁agent	-11.043
▁tree	-11.0431
▁CEO	-11.0431
ティ	-11.0435
LA	-11.0436
▁fou	-11.0436
聚	-11.044
여	-11.0444
这么	-11.0444
▁motion	-11.0447
▁UN	-11.0448
▁Tur	-11.0451
▁familiar	-11.0459
Add	-11.046
的重要	-11.046
nis	-11.0461
普通	-11.0462
rm	-11.0463
职	-11.0464
Ma	-11.0465
徐	-11.0466
あ	-11.0466
▁topic	-11.0466
▁Students	-11.0467
ต	-11.0467
ец	-11.0468
卫生	-11.0468
BkkF	-11.0469
▁domestic	-11.0478
▁Site	-11.0479
▁Elle	-11.0482
▁advance	-11.0488
cF	-11.0488
lum	-11.0492
▁Eric	-11.0492
▁obtained	-11.0493
礼	-11.0496
▁thoughts	-11.0502
息	-11.0503
▁familia	-11.0505
dr	-11.0506
额	-11.0506
Na	-11.0508
▁gift	-11.051
击	-11.0511
▁introduced	-11.0511
wing	-11.0514
▁excited	-11.0515
▁changing	-11.0515
▁Naissance	-11.0519
异	-11.052
بر	-11.0522
▁Night	-11.0525
▁Thus	-11.0526
。","	-11.0528
做到	-11.053
пи	-11.0531
▁இ	-11.0534
ست	-11.0535
sp	-11.0537
▁adding	-11.0538
▁/*	-11.054
arch	-11.0542
zy	-11.0543
ប	-11.0544
▁Ti	-11.0544
nik	-11.0544
▁circumstances	-11.0548
when	-11.0551
卷	-11.0551
cons	-11.0555
री	-11.0556
▁CD	-11.0557
▁connected	-11.0557
优化	-11.0557
载	-11.0561
▁ran	-11.0561
▁minimum	-11.0562
BA	-11.0567
ova	-11.0567
▁static	-11.0571
▁centre	-11.0571
谈	-11.0572
nce	-11.0572
]{	-11.0572
mathrm	-11.0577
▁carried	-11.0579
ម	-11.0584
▁journey	-11.0585
▁beat	-11.0589
绝	-11.0589
pal	-11.059
unit	-11.0591
형	-11.0593
▁forget	-11.0593
▁advanced	-11.0596
стан	-11.0598
▁regulations	-11.0598
势	-11.0599
また	-11.06
pet	-11.0601
命	-11.0602
参	-11.0603
▁managed	-11.0603
output	-11.0604
▁grew	-11.0605
▁flow	-11.0606
▁payment	-11.0606
ват	-11.061
NI	-11.0612
RT	-11.0612
▁crisis	-11.0614
有的	-11.0614
nat	-11.062
找到	-11.0621
合同	-11.0625
rel	-11.0631
▁murder	-11.0635
▁keversoort	-11.0637
ネ	-11.0643
NE	-11.0645
ware	-11.0646
▁housing	-11.0646
元素	-11.0646
Mar	-11.0647
श	-11.0647
▁Das	-11.0647
主题	-11.0647
show	-11.065
人口	-11.0652
▁오	-11.0653
▁editor	-11.0654
纯	-11.0656
人生	-11.0657
纳	-11.0657
事业	-11.0658
She	-11.0659
引	-11.0659
nut	-11.0659
分别	-11.066
登记	-11.0662
lot	-11.0663
اد	-11.0664
▁supposed	-11.0664
جر	-11.0667
▁vision	-11.0667
▁Gold	-11.0669
齐	-11.067
▁Russian	-11.0672
▁conversation	-11.0673
▁holds	-11.0677
▁Canadian	-11.0677
け	-11.0678
壶体	-11.0678
wan	-11.0681
▁researchers	-11.0682
售后质保	-11.0683
▁keeping	-11.0684
打磨细腻	-11.0686
▁Bre	-11.0686
stream	-11.0686
举	-11.0688
这边看下图片哈	-11.0689
特点	-11.0691
？【	-11.0693
▁Fair	-11.0693
mas	-11.0693
▁mort	-11.0694
デ	-11.0697
▁aussi	-11.0697
▁discovered	-11.0698
"}],	-11.0703
▁refer	-11.0704
ül	-11.0705
ologie	-11.0706
警	-11.0707
▁dedicated	-11.0707
ボ	-11.0707
軍	-11.0708
rum	-11.0709
▁parent	-11.0709
运输	-11.0709
▁secret	-11.071
HS	-11.0711
دا	-11.0712
▁percentage	-11.0717
▁Radio	-11.0718
Request	-11.0718
発	-11.0718
▁miêu	-11.0718
阴	-11.0719
пер	-11.0721
▁Studies	-11.0723
Ge	-11.0724
改善	-11.0726
▁Russia	-11.0726
▁ou	-11.0727
媒体	-11.0731
線	-11.0732
▁score	-11.0732
▁ع	-11.0733
▁proof	-11.0734
广大	-11.0734
속	-11.0734
}{\	-11.0736
▁cent	-11.0738
rt	-11.0738
▁adult	-11.074
音乐	-11.0742
▁accepted	-11.0745
▁Gi	-11.0747
▁До	-11.0747
弱	-11.0751
▁Bro	-11.0752
谁	-11.0753
ក	-11.0753
▁Date	-11.0755
▁commitment	-11.0756
▁també	-11.0759
"]	-11.0759
Ba	-11.076
▁Hol	-11.0769
auto	-11.077
src	-11.077
认真	-11.0771
▁proud	-11.0778
▁phase	-11.0778
厂家	-11.0778
持	-11.0779
举行	-11.078
▁bright	-11.0782
ces	-11.0784
▁serving	-11.0784
▁reasonable	-11.0785
▁broke	-11.0785
▁draft	-11.0786
▁afternoon	-11.0786
▁expression	-11.0787
▁Eu	-11.0787
At	-11.0788
规模	-11.0788
ши	-11.0793
▁Mad	-11.0794
▁ح	-11.0794
▁fix	-11.0794
演	-11.0795
说明书	-11.0796
▁properties	-11.0798
▁nach	-11.0798
া	-11.0798
▁Camp	-11.0801
▁Sha	-11.0803
宗	-11.0804
現	-11.0804
ès	-11.0805
▁shooting	-11.0808
AB	-11.0808
▁matters	-11.0808
▁participate	-11.0811
Item	-11.0812
article	-11.0812
▁standing	-11.0813
▁hundred	-11.0813
▁<-	-11.0814
汤	-11.0814
▁신	-11.0818
▁connect	-11.0818
推广	-11.0819
tus	-11.0821
▁identified	-11.0821
바	-11.0821
cf	-11.0823
Bo	-11.0824
ны	-11.0825
落实	-11.0827
vxK	-11.0832
依据	-11.0833
hor	-11.0833
▁panel	-11.0834
▁enjoyed	-11.0834
▁Ze	-11.0835
众	-11.0836
apple	-11.0839
▁ப	-11.0839
▁spoke	-11.0841
免	-11.0843
笔	-11.0845
▁animal	-11.0846
农村	-11.0847
严重	-11.0849
SA	-11.085
mak	-11.0851
▁Records	-11.0851
营	-11.0854
▁Contact	-11.0858
ения	-11.0859
public	-11.0863
▁draw	-11.0863
加盟	-11.0865
▁crowd	-11.0866
▁debut	-11.0866
life	-11.0867
力量	-11.0867
stand	-11.0867
ção	-11.0868
争	-11.0869
figure	-11.0869
▁units	-11.0869
▁listen	-11.0871
▁yes	-11.0872
▁creative	-11.0874
Man	-11.0874
刻	-11.0876
▁공	-11.088
APP	-11.0884
发挥	-11.0884
rak	-11.0885
▁Carl	-11.0885
방	-11.0886
jxK	-11.0886
eau	-11.0893
pan	-11.0894
刷	-11.0896
硬	-11.0897
▁NOT	-11.0897
▁Blog	-11.0903
▁Sur	-11.0906
▁believed	-11.0906
盐	-11.0911
脑	-11.0913
喝	-11.0917
bed	-11.0918
중	-11.092
XxK	-11.0921
采取	-11.0923
脱	-11.0923
cell	-11.0923
▁App	-11.093
合理	-11.0931
▁Ger	-11.0932
份	-11.0932
bet	-11.0932
ค	-11.0933
Po	-11.0934
cor	-11.0938
▁server	-11.094
isme	-11.0944
唐	-11.0948
Г	-11.0951
▁Maria	-11.0953
хо	-11.0955
%，	-11.0956
ala	-11.0961
inde	-11.0964
เป็น	-11.0966
yn	-11.0969
▁pan	-11.097
▁Class	-11.0972
▁winter	-11.0973
ени	-11.0976
▁edition	-11.098
苦	-11.0982
▁returns	-11.0985
藏	-11.0986
依法	-11.0986
▁Де	-11.0987
▁catch	-11.0987
▁Els	-11.0987
发货	-11.0987
▁def	-11.0989
▁<=	-11.0991
▁Colorado	-11.0993
▁Corporation	-11.0996
Mu	-11.0996
nic	-11.0996
可预约	-11.0999
定制	-11.1
▁Force	-11.1
配置	-11.1001
util	-11.1003
▁treated	-11.1004
ses	-11.1005
查看	-11.1007
ket	-11.1009
诗	-11.1012
Ha	-11.1013
▁Did	-11.1014
card	-11.1015
▁explained	-11.1017
内部	-11.1018
▁candidate	-11.1019
▁rec	-11.1021
▁Mont	-11.1022
lle	-11.1022
pdf	-11.1022
연	-11.1024
System	-11.1029
▁Phil	-11.103
én	-11.1032
default	-11.1033
注	-11.1034
订单	-11.1035
▁Ryan	-11.1036
ei	-11.1037
▁launch	-11.1037
에는	-11.1041
TxK	-11.1042
为什么	-11.1042
孙	-11.1042
这款黑色	-11.1043
规范	-11.1043
先生	-11.1045
▁absolutely	-11.1046
och	-11.1047
传播	-11.1048
▁Search	-11.1049
小时保温	-11.1049
耐高温紫砂	-11.105
森	-11.105
防烫把手	-11.105
非常方便哦	-11.1051
打完直接喝	-11.1051
▁九阳新款	-11.1051
办理	-11.1051
edit	-11.1052
今	-11.1055
▁Only	-11.1057
▁causes	-11.1058
ダ	-11.106
▁Ар	-11.1062
▁però	-11.1064
법	-11.1066
mol	-11.1066
▁vol	-11.1067
卫	-11.1069
风格	-11.1069
ну	-11.1074
▁specifically	-11.1075
厚	-11.1075
пе	-11.1076
▁Stephen	-11.1076
▁leads	-11.1081
mode	-11.1082
▁moral	-11.1083
▁bağlı	-11.1085
見	-11.1088
▁tests	-11.1089
▁Personen	-11.109
▁division	-11.1091
▁database	-11.1092
▁Bio	-11.1093
战略	-11.1095
eth	-11.1097
▁owners	-11.1097
lich	-11.11
angle	-11.11
tab	-11.1101
fxK	-11.1102
▁respond	-11.1102
▁yer	-11.1103
▁favor	-11.1108
ல	-11.1111
▁영화	-11.1111
zxK	-11.1111
▁portion	-11.1113
▁chapter	-11.1116
PxK	-11.1119
▁route	-11.112
▁posts	-11.1121
▁Week	-11.1122
って	-11.1127
司	-11.1128
基因	-11.1128
▁lots	-11.1129
▁comuna	-11.113
stat	-11.1135
▁baseball	-11.1136
▁있는	-11.1136
优秀	-11.1142
▁loan	-11.1143
消	-11.1143
▁contest	-11.1145
AT	-11.1146
location	-11.1147
kg	-11.1154
bxK	-11.1156
های	-11.1157
登	-11.1158
avg	-11.1158
品质	-11.1158
object	-11.116
rn	-11.116
dom	-11.116
重新	-11.1161
▁herself	-11.1162
▁throw	-11.1165
git	-11.1166
Ch	-11.1167
▁root	-11.117
左	-11.1173
▁transition	-11.1176
▁Yet	-11.1176
▁onto	-11.1179
待	-11.1181
基地	-11.1181
▁외부	-11.1181
DxK	-11.1181
保险	-11.1186
LxK	-11.1187
aceae	-11.119
▁index	-11.1192
▁port	-11.1192
HxK	-11.1193
▁remaining	-11.1196
▁Main	-11.1197
的影响	-11.1204
▁warm	-11.1205
히	-11.1207
AA	-11.1208
▁farm	-11.1208
lé	-11.1209
瑞	-11.121
▁mark	-11.1211
파	-11.1214
▁wine	-11.1214
cus	-11.1217
▁dell	-11.1217
▁fields	-11.1219
임	-11.122
▁Find	-11.1224
直播	-11.1226
ович	-11.1228
fire	-11.123
▁scored	-11.1234
朱	-11.1234
Map	-11.1235
承担	-11.1235
dc	-11.1235
EP	-11.1238
基金	-11.1238
下面	-11.124
يد	-11.1242
শ	-11.1242
▁Pu	-11.1242
查询	-11.1243
영	-11.1244
▁sonra	-11.1244
AI	-11.1245
▁core	-11.1245
ets	-11.1245
ân	-11.1246
وب	-11.1252
晚	-11.1253
хи	-11.1255
iva	-11.1257
▁medicine	-11.1258
季	-11.1259
▁positions	-11.1259
防止	-11.126
镜	-11.1261
ora	-11.1264
ல்	-11.1265
并不	-11.1266
耐	-11.1269
它的	-11.127
▁Beach	-11.1271
乳	-11.1272
▁hotel	-11.1273
痛	-11.1274
征	-11.1274
lis	-11.1276
يس	-11.1277
▁classic	-11.1278
侧	-11.1279
ディ	-11.1283
大量	-11.1283
▁Online	-11.1285
▁scheduled	-11.1287
etti	-11.1291
ais	-11.1293
关键	-11.1294
े	-11.1295
nan	-11.1296
灵	-11.1297
▁Rev	-11.1298
折	-11.1299
成绩	-11.1302
▁آ	-11.1303
dos	-11.1306
。\"	-11.1306
psi	-11.1308
来看	-11.131
▁Ann	-11.1311
model	-11.1312
Event	-11.1314
ised	-11.1316
ща	-11.1317
▁perspective	-11.1317
▁най	-11.1317
▁twice	-11.132
▁entirely	-11.1321
ена	-11.1321
Л	-11.1322
where	-11.1322
面对	-11.1325
▁Off	-11.1326
▁combined	-11.1326
•	-11.1326
nen	-11.1326
fall	-11.1326
born	-11.1326
tis	-11.1329
▁decade	-11.1331
救	-11.1332
pin	-11.1332
只能	-11.1333
▁menu	-11.1335
▁extent	-11.1336
▁fee	-11.1336
▁stopped	-11.1338
▁bus	-11.1338
Style	-11.1339
delta	-11.1339
▁movies	-11.1344
▁Del	-11.1345
▁clinical	-11.1346
胡	-11.1348
▁caught	-11.1349
ín	-11.1351
nxK	-11.1352
▁desire	-11.1354
▁bought	-11.1355
餐	-11.1356
Bar	-11.1357
▁fixed	-11.1358
los	-11.1359
first	-11.1359
连续	-11.1359
▁occur	-11.1359
▁contain	-11.136
▁counter	-11.1362
プ	-11.1362
ใน	-11.1363
君	-11.1363
静	-11.1363
沸腾	-11.1364
ая	-11.1364
ır	-11.1365
▁assistant	-11.1365
dor	-11.1368
是什么	-11.1369
▁Korea	-11.137
近日	-11.137
▁sample	-11.1371
press	-11.1371
▁possibly	-11.1371
EX	-11.1371
kat	-11.1373
父母	-11.1374
▁affected	-11.1375
▁offense	-11.1376
bat	-11.1376
最近	-11.1378
ё	-11.1378
年度	-11.1378
▁planet	-11.138
此外	-11.138
▁состав	-11.1383
？/:^$^	-11.1385
▁링크	-11.1386
▁thuộc	-11.1388
film	-11.139
沟通	-11.139
▁Ба	-11.1392
Ф	-11.1392
行政	-11.1392
▁shape	-11.1392
ត	-11.1393
▁cars	-11.1396
▁hurt	-11.1397
▁motor	-11.14
event	-11.14
▁stress	-11.14
ち	-11.1401
▁вы	-11.1404
gui	-11.1404
振	-11.1407
نو	-11.1408
oma	-11.1411
▁receiving	-11.1413
ง	-11.1416
销	-11.1417
时代	-11.1418
岩	-11.142
丰	-11.1423
电蒸锅	-11.1423
cing	-11.1427
ца	-11.1429
抓	-11.1429
▁帮您转售后	-11.1429
▁arm	-11.143
▁Brian	-11.1431
跳	-11.1432
▁foot	-11.1434
tech	-11.1435
э	-11.1436
▁appeal	-11.1437
avi	-11.1439
DD	-11.1439
티	-11.1441
من	-11.1442
▁Tags	-11.1442
▁platform	-11.1443
抽	-11.1445
恢复	-11.1446
▁attorney	-11.1447
年の	-11.1448
jan	-11.1448
相信	-11.145
IM	-11.145
▁appearance	-11.1451
mic	-11.1452
▁pieces	-11.1452
靠	-11.1452
hn	-11.1454
证明	-11.1455
▁후	-11.1457
▁học	-11.1457
归	-11.146
▁Fort	-11.1461
▁Gra	-11.1462
▁ما	-11.1462
^{-	-11.1462
夏季	-11.1464
dra	-11.1471
▁tells	-11.1472
▁speaking	-11.1473
gamma	-11.1474
连接	-11.1476
या	-11.1476
kon	-11.1477
▁Three	-11.1482
不知道	-11.1482
band	-11.1485
？"	-11.1487
▁seeking	-11.1487
▁val	-11.1494
的亲	-11.1494
cin	-11.1495
ذ	-11.1496
▁push	-11.1497
▁как	-11.1497
▁Click	-11.1498
else	-11.1498
phone	-11.1499
豆	-11.1502
▁Ray	-11.1505
Per	-11.1507
CU	-11.1508
▁discussed	-11.1508
麻	-11.151
▁vật	-11.1512
ches	-11.1513
▁surgery	-11.1514
▁Columbia	-11.1516
▁كان	-11.152
▁Master	-11.1521
仙	-11.1523
Ar	-11.1524
青年	-11.1526
魔	-11.1527
active	-11.1527
▁Nor	-11.1528
山东	-11.1529
▁Kansas	-11.1532
Ka	-11.1533
医生	-11.1538
current	-11.1538
gro	-11.1538
答案	-11.154
创造	-11.154
Table	-11.1542
如此	-11.1542
Exception	-11.1543
▁prefer	-11.1543
TYPE	-11.1543
爆	-11.1544
▁Източници	-11.1544
pel	-11.1545
EA	-11.1545
泡	-11.155
▁Little	-11.1551
主动	-11.1551
)"	-11.1553
▁manage	-11.1553
▁relationships	-11.1553
ат	-11.1554
ami	-11.1554
▁Shi	-11.1555
▁fish	-11.1557
▁basketball	-11.1561
Star	-11.1562
Line	-11.1563
▁Attorney	-11.1563
tim	-11.1565
การ	-11.1566
翻	-11.1568
site	-11.1568
اح	-11.1572
效率	-11.1572
▁Yu	-11.1572
▁Miller	-11.1574
پ	-11.158
ته	-11.1586
▁khoa	-11.1588
▁الس	-11.1588
발	-11.1589
Array	-11.1597
▁Fu	-11.1598
бор	-11.1598
▁allowing	-11.1598
▁express	-11.1599
▁null	-11.1601
ច	-11.1601
rxK	-11.1602
记录	-11.1604
AR	-11.1609
▁Awards	-11.161
직	-11.161
酒店	-11.1612
大型	-11.1617
IS	-11.1619
hol	-11.1621
▁település	-11.1621
检	-11.1621
▁emergency	-11.1621
ガ	-11.1622
感觉	-11.1622
nia	-11.1626
射	-11.1627
▁secure	-11.1627
ण	-11.1627
效	-11.1628
err	-11.1629
▁courses	-11.163
▁camera	-11.1632
▁Os	-11.1632
she	-11.1633
▁surprise	-11.1634
氏	-11.1634
▁registered	-11.1636
▁Still	-11.1636
تر	-11.1637
yer	-11.164
▁Town	-11.164
lit	-11.1647
CR	-11.1648
类型	-11.1648
]]	-11.1652
iu	-11.1655
▁external	-11.1662
['	-11.1662
▁fi	-11.1666
▁deliver	-11.1667
本题考查	-11.1668
▁col	-11.1673
气体	-11.1674
▁brief	-11.1674
▁participants	-11.1675
▁Ли	-11.1675
▁hate	-11.1676
▁조	-11.1676
hin	-11.1677
▁facts	-11.1678
革命	-11.1678
prop	-11.168
ック	-11.1682
▁بن	-11.1682
▁elected	-11.1684
oz	-11.1684
▁Data	-11.1685
ното	-11.1685
▁Medicine	-11.1685
▁Sta	-11.1685
DE	-11.1686
fra	-11.1686
越来越	-11.1687
▁Fox	-11.1687
▁أشخاص	-11.169
▁وصلات	-11.1694
ira	-11.1694
▁nil	-11.1695
их	-11.1697
▁bei	-11.1698
教授	-11.1699
жи	-11.17
▁Tre	-11.1703
▁sweet	-11.1706
دي	-11.1707
vy	-11.1707
ich	-11.1709
▁waste	-11.1709
md	-11.1709
尚	-11.171
ход	-11.1715
铜	-11.1716
▁Население	-11.1717
▁attacks	-11.172
丁	-11.172
ité	-11.1721
▁시	-11.1723
▁enforcement	-11.1723
Cl	-11.1724
▁във	-11.1726
พ	-11.1727
St	-11.1728
san	-11.1729
ace	-11.1735
官方	-11.1736
"><	-11.1737
Ex	-11.1738
temp	-11.1738
鲁	-11.1738
TR	-11.174
▁NFL	-11.1742
▁Ste	-11.1742
uck	-11.1745
▁description	-11.1747
▁sitting	-11.1748
ör	-11.175
تي	-11.175
测	-11.1753
▁provisions	-11.1754
▁각주	-11.1754
oon	-11.1755
[]	-11.1755
eh	-11.1756
▁male	-11.1762
Delta	-11.1763
困难	-11.1763
dır	-11.1763
▁Ан	-11.1765
▁domain	-11.1766
喷	-11.1767
▁imagine	-11.1767
▁arts	-11.1768
那个	-11.177
▁miss	-11.177
▁judgment	-11.1772
准	-11.1774
▁Wilson	-11.1775
地理	-11.1776
▁iPhone	-11.1777
湿	-11.1778
প	-11.178
▁plenty	-11.178
+\	-11.1781
梁	-11.1782
わ	-11.1782
▁sud	-11.1783
يو	-11.1783
▁съ	-11.1788
▁Jay	-11.1789
▁Massachusetts	-11.1789
▁teach	-11.1793
▁sets	-11.1794
▁prepare	-11.1796
智慧	-11.1797
▁arrived	-11.1798
▁بر	-11.1799
▁joint	-11.1799
▁Ken	-11.1801
流程	-11.1801
▁То	-11.1802
تا	-11.1802
М	-11.1804
几个	-11.1808
aka	-11.1811
干磨杯	-11.1813
バー	-11.1817
双层防烫	-11.1819
完善	-11.1819
豆直接打	-11.182
免泡豆	-11.182
无需二次加热	-11.182
▁美味随时享	-11.182
重扰流	-11.182
定时预约	-11.182
豆湿	-11.182
物理保温时间长	-11.182
细腻免过滤	-11.1821
小客服看下图片呢	-11.1821
▁Bal	-11.1823
cb	-11.1823
▁glad	-11.1823
독	-11.1823
されている	-11.1824
售后网点	-11.1824
▁script	-11.1824
▁Fe	-11.1826
▁attended	-11.1828
font	-11.1828
▁famille	-11.1828
▁Sant	-11.1828
▁rare	-11.1829
▁symptoms	-11.1834
医	-11.1834
분	-11.1839
GA	-11.184
▁الق	-11.1841
ري	-11.1844
▁Char	-11.1845
临	-11.1845
Well	-11.1848
▁الن	-11.185
▁experts	-11.1851
lip	-11.1854
II	-11.1854
EN	-11.1855
نس	-11.1857
成长	-11.1858
▁impossible	-11.1858
디	-11.1861
通常	-11.1865
▁vice	-11.1867
▁mar	-11.1867
▁disk	-11.1867
▁Ро	-11.1869
▁register	-11.187
▁assist	-11.1871
▁readers	-11.1873
▁estimated	-11.1874
▁height	-11.1874
矿	-11.1874
lla	-11.1874
care	-11.1875
▁maximum	-11.1877
dig	-11.1877
ug	-11.1881
▁Sie	-11.1881
▁كرة	-11.1884
▁magazine	-11.1884
▁telling	-11.1886
▁fiscal	-11.1887
▁Cross	-11.189
▁Instead	-11.189
ј	-11.189
▁ourselves	-11.1891
كي	-11.1891
▁suggested	-11.1894
Form	-11.1895
▁begins	-11.1896
▁brings	-11.1898
▁inwoners	-11.1899
▁consumer	-11.1899
service	-11.1902
▁paying	-11.1904
▁Berlin	-11.1907
罪	-11.1907
chen	-11.1908
▁Taylor	-11.1909
宋	-11.1912
▁sharing	-11.1913
▁resource	-11.1913
▁desa	-11.1913
▁reduced	-11.1919
寒	-11.1923
幸福	-11.1924
ो	-11.1924
▁String	-11.1926
Е	-11.1927
nn	-11.1929
坐	-11.1934
ком	-11.1935
及其	-11.1935
特殊	-11.1937
▁smart	-11.1938
▁마	-11.194
▁gran	-11.1941
bound	-11.1944
مسیر	-11.1944
良好的	-11.1947
▁processes	-11.1948
▁وت	-11.1949
ख	-11.1952
托	-11.1952
sc	-11.1953
mem	-11.1955
▁fins	-11.1956
lash	-11.1961
pat	-11.1963
激发	-11.1964
▁Right	-11.1965
▁같이	-11.1966
▁부	-11.197
▁Tar	-11.1971
▁हैं	-11.1971
щ	-11.1973
ста	-11.1973
再次	-11.1976
举办	-11.1977
vision	-11.1982
▁Kim	-11.1984
症	-11.1984
有着	-11.1984
虫	-11.1985
Oh	-11.1985
更多的	-11.1987
▁broken	-11.1987
En	-11.1989
uni	-11.1989
晓	-11.199
▁Work	-11.199
潮	-11.199
▁това	-11.1993
透	-11.1994
▁Collegamenti	-11.1994
uh	-11.1996
fn	-11.1997
ute	-11.1997
获	-11.1998
指出	-11.2
▁dé	-11.2
재	-11.2003
感染	-11.2004
TC	-11.2004
滑	-11.2005
▁Microsoft	-11.2007
▁storage	-11.2007
▁Fri	-11.2007
▁fees	-11.2009
▁Те	-11.201
显	-11.2011
▁hundreds	-11.2013
屏	-11.2013
Service	-11.2015
vr	-11.2016
索	-11.202
的时间	-11.202
舞	-11.202
▁authorities	-11.202
召开	-11.2021
调节	-11.2022
GR	-11.2023
壁	-11.2025
的小	-11.2027
hard	-11.2028
置	-11.2028
▁Ve	-11.2029
▁Japanese	-11.203
場	-11.2031
▁obvious	-11.2039
▁weapons	-11.2041
oli	-11.2045
FE	-11.2045
大的	-11.2047
依照	-11.2047
墙	-11.2047
本院	-11.2051
▁length	-11.2053
▁تغییر	-11.2053
▁Pennsylvania	-11.2054
▁част	-11.2055
冬	-11.2055
▁filled	-11.2059
네	-11.2062
▁chosen	-11.2064
())	-11.2065
되어	-11.2065
dot	-11.2067
pass	-11.207
创业	-11.2072
лу	-11.2076
eng	-11.2076
以获取	-11.2077
فر	-11.2077
▁NULL	-11.208
flagged	-11.2081
里面	-11.2081
▁Minnesota	-11.2083
▁expressed	-11.2083
▁Holy	-11.2084
▁Grant	-11.2085
ön	-11.2087
▁които	-11.2089
▁relatively	-11.2091
stein	-11.2097
▁engineering	-11.2097
ол	-11.2097
rot	-11.2097
нето	-11.2099
▁От	-11.2099
毒	-11.2102
イン	-11.2103
float	-11.2105
close	-11.211
ヒ	-11.2112
育	-11.2112
▁updated	-11.2118
▁kill	-11.2118
template	-11.2123
まで	-11.2123
▁accounts	-11.2123
fit	-11.2124
仪	-11.2126
▁Sept	-11.2127
稳	-11.213
▁Ki	-11.2132
▁writes	-11.2132
conf	-11.2133
graph	-11.2135
ул	-11.2135
数量	-11.2139
▁Student	-11.214
Collegamenti	-11.2143
最大的	-11.2143
探	-11.2144
rem	-11.2144
页	-11.2144
PR	-11.2145
▁사람	-11.2145
三个	-11.2146
об	-11.2147
စ	-11.2148
tle	-11.215
伟	-11.2152
▁describe	-11.2152
▁към	-11.2155
출	-11.2156
ах	-11.2157
实力	-11.216
▁км	-11.2161
▁snow	-11.2163
(),	-11.2164
/:-	-11.2165
▁twenty	-11.2166
▁де	-11.2166
使得在	-11.2167
து	-11.2168
ê	-11.217
抢	-11.217
ツ	-11.217
mission	-11.2172
▁Natural	-11.2175
比较均匀	-11.2177
▁soul	-11.2178
gue	-11.218
▁Adam	-11.218
▁Father	-11.2182
▁पर	-11.2182
牙	-11.2183
污染	-11.2184
じ	-11.2185
ij	-11.2185
▁boys	-11.2189
动力	-11.2191
遇到	-11.2194
ico	-11.2195
▁occurred	-11.2196
result	-11.2197
▁plot	-11.2197
可以打	-11.2198
英国	-11.2199
ose	-11.22
▁qual	-11.22
时看起来	-11.2201
front	-11.2201
يت	-11.2206
▁село	-11.2206
mente	-11.2206
ult	-11.2209
▁worst	-11.2211
▁sin	-11.2212
▁formed	-11.2214
목	-11.2214
是正常的情况	-11.2217
文武火	-11.2218
程序设计是	-11.222
中药模式	-11.222
yr	-11.222
气泡的形成	-11.222
▁plants	-11.222
智能调节的	-11.222
不太明显也	-11.2221
且沸腾	-11.2221
在煎药的过程中	-11.2221
性保留	-11.2221
自动适应调	-11.2222
成果	-11.2222
过程中所产生的热量	-11.2222
在使用过程遇到什么问题	-11.2222
是比较微小的	-11.2222
都可以及时与我们	-11.2222
喷水与	-11.2222
得更完好	-11.2222
微沸腾状态	-11.2222
煲其	-11.2222
最佳药效	-11.2222
联系哈	-11.2223
与水的温度接近	-11.2223
▁temperature	-11.2223
添加	-11.2224
是在	-11.2225
ты	-11.2225
합	-11.2225
▁Judge	-11.2225
ще	-11.2225
▁scientists	-11.2226
▁figures	-11.2229
東京	-11.223
观察	-11.223
▁Guide	-11.2231
线上	-11.2232
석	-11.2235
▁stars	-11.2235
▁Gen	-11.2237
▁encourage	-11.2239
ela	-11.2239
dur	-11.224
arm	-11.224
▁над	-11.2241
球队	-11.2242
нд	-11.2242
▁Governor	-11.2245
eix	-11.2246
▁avec	-11.2246
考生	-11.2249
▁família	-11.2249
昌	-11.225
)\	-11.2253
享受	-11.2253
status	-11.2254
gas	-11.2255
▁folgender	-11.2255
▁candidates	-11.2255
也不	-11.2256
▁bringing	-11.2258
▁Memorial	-11.2259
who	-11.2259
*}	-11.226
▁considering	-11.2262
แ	-11.2262
ét	-11.2263
就业	-11.2266
▁Story	-11.227
▁category	-11.2273
間	-11.2275
мер	-11.2276
وم	-11.2279
▁duty	-11.228
▁threat	-11.2282
充	-11.2283
iş	-11.2286
▁dangerous	-11.2286
▁explore	-11.2288
args	-11.2289
时期	-11.229
ord	-11.2292
▁aspects	-11.2292
▁Head	-11.2293
▁yesterday	-11.2296
文件	-11.2296
ration	-11.2296
延	-11.2297
参考	-11.2298
中华人民共和国民事诉讼法	-11.2299
App	-11.23
heta	-11.2302
uch	-11.2304
▁satu	-11.2305
认识	-11.2307
▁drama	-11.2307
▁É	-11.2308
▁necessarily	-11.2308
၊	-11.2308
ib	-11.2309
RS	-11.2312
ئ	-11.2312
▁arms	-11.2313
▁Therefore	-11.2314
可知	-11.2315
ila	-11.2321
▁forth	-11.2323
庄	-11.2325
▁Financial	-11.2326
▁especie	-11.2326
▁shares	-11.2326
▁dinner	-11.2326
▁Centre	-11.2327
▁examples	-11.2329
购	-11.2329
棱升	-11.233
▁són	-11.233
财	-11.233
▁disc	-11.2331
▁†	-11.2332
IF	-11.2333
lia	-11.2333
بي	-11.2334
开放	-11.2334
▁hat	-11.2334
nova	-11.2335
▁assets	-11.2335
▁Republic	-11.2336
ि	-11.2338
▁fashion	-11.234
挂	-11.234
================	-11.2343
▁missed	-11.2344
▁corner	-11.2344
▁Such	-11.2346
ение	-11.2348
▁Lewis	-11.2348
usr	-11.235
袋	-11.2352
rang	-11.2353
让人	-11.2354
▁reporting	-11.2356
ली	-11.2357
▁Bowl	-11.2358
▁mix	-11.2359
▁identity	-11.236
tir	-11.2363
sing	-11.2365
立即	-11.2365
sar	-11.2366
ago	-11.2366
cions	-11.2368
alt	-11.237
客服	-11.2371
▁knowing	-11.2374
下降	-11.2375
宝宝	-11.2377
简	-11.2378
▁Hope	-11.2378
▁ولد	-11.238
▁pool	-11.2382
▁delivery	-11.2383
▁extended	-11.2384
▁primer	-11.2384
▁Bell	-11.2385
اع	-11.2387
宽	-11.2391
root	-11.2393
format	-11.2394
yes	-11.2395
▁progetti	-11.2396
foot	-11.2397
▁لاعبو	-11.2398
▁Light	-11.2398
▁vast	-11.2398
乙	-11.24
racket	-11.24
▁industrial	-11.24
▁Video	-11.24
配合	-11.2402
▁Rose	-11.2402
▁serves	-11.2403
▁recovery	-11.2403
making	-11.2403
実	-11.2404
Input	-11.2404
▁installation	-11.2405
▁interface	-11.2405
泉	-11.2406
****	-11.2406
ados	-11.2408
▁nella	-11.2408
▁NY	-11.241
▁neither	-11.2411
perplexity	-11.2411
▁Ac	-11.2414
Pos	-11.2414
kes	-11.2415
▁taste	-11.2417
▁einer	-11.2419
▁walking	-11.2419
天气	-11.242
▁共	-11.242
▁Support	-11.2424
▁Referències	-11.2424
善	-11.2424
▁confidence	-11.2426
▁aid	-11.243
▁implementation	-11.2431
▁cre	-11.2431
▁هذا	-11.2432
准确	-11.2433
淡	-11.2434
▁Oh	-11.2434
残	-11.2435
▁Cancer	-11.2435
▁buildings	-11.2436
▁slightly	-11.2438
搜索	-11.2438
-\	-11.2438
▁hits	-11.2441
泵	-11.2441
master	-11.2443
实践	-11.2443
▁Australian	-11.2444
▁ride	-11.2445
電	-11.2447
▁sport	-11.2451
Result	-11.2453
▁wild	-11.2453
ном	-11.2454
▁millions	-11.2454
▁existence	-11.2455
UI	-11.2456
mate	-11.2456
roll	-11.2456
▁който	-11.2456
▁McC	-11.2458
饮	-11.2458
装置	-11.246
▁approval	-11.2469
Ta	-11.2469
rain	-11.247
▁letters	-11.247
َّ	-11.2474
rated	-11.2476
bc	-11.2476
▁recognize	-11.2477
▁Tax	-11.2478
▁Jeff	-11.2481
face	-11.2484
▁Türk	-11.2484
▁Harry	-11.2485
GE	-11.2487
▁council	-11.2487
▁relative	-11.2488
▁comfortable	-11.249
▁YÖNLENDİRME	-11.2491
▁Constitution	-11.2492
ao	-11.2492
▁properly	-11.2493
监督	-11.2493
▁Hal	-11.2494
sie	-11.2495
▁zero	-11.2497
imes	-11.2499
广州	-11.25
瓶	-11.25
hal	-11.2501
channel	-11.2505
▁Са	-11.2507
▁Arab	-11.2507
土地	-11.2507
▁wear	-11.2508
ál	-11.2508
▁Ron	-11.2509
▁consistent	-11.251
▁Bad	-11.2511
▁signs	-11.2512
mé	-11.2513
看看	-11.2514
理念	-11.2515
dt	-11.2516
▁chair	-11.2517
▁edge	-11.2519
▁Edward	-11.2519
面板	-11.2519
▁remained	-11.252
▁apt	-11.252
▁net	-11.2523
接触	-11.2525
积	-11.2527
mul	-11.2527
一条	-11.2529
alnum	-11.253
▁Iowa	-11.253
逐渐	-11.253
step	-11.253
▁Kevin	-11.2533
▁directed	-11.2535
▁Han	-11.2536
维修	-11.2537
^{\	-11.254
image	-11.254
фи	-11.2542
سا	-11.2545
易清洗	-11.2545
tik	-11.2545
onia	-11.2545
▁Way	-11.2546
FS	-11.2548
OK	-11.2549
CI	-11.255
理论	-11.2551
▁Album	-11.2553
机制	-11.2554
役	-11.2554
▁comp	-11.2557
大小	-11.2557
主要是	-11.2559
▁stood	-11.256
ON	-11.256
いた	-11.2561
▁origin	-11.2562
▁동	-11.2563
▁wave	-11.2565
ack	-11.2567
daki	-11.2567
nar	-11.2567
▁Senior	-11.2568
象	-11.2569
Sc	-11.2569
▁Watch	-11.2571
token	-11.2571
▁Latin	-11.2572
▁supporting	-11.2573
▁broad	-11.2575
▁reflect	-11.2575
▁exact	-11.2576
▁Final	-11.2577
▁وفيات	-11.2577
ites	-11.258
ै	-11.2582
rio	-11.2587
▁Rome	-11.2588
柜	-11.2589
分布	-11.2589
▁Kom	-11.2593
eva	-11.2596
▁Au	-11.2599
update	-11.2603
▁detailed	-11.2604
盒	-11.2605
BB	-11.2605
为主	-11.2607
opt	-11.2607
更是	-11.261
▁mom	-11.261
▁techniques	-11.2611
当时	-11.2612
▁procedures	-11.2613
的方式	-11.2617
▁tradition	-11.2617
Exp	-11.2619
许	-11.2619
▁improved	-11.262
您看下	-11.2621
род	-11.2621
ския	-11.2622
ود	-11.2622
member	-11.2624
▁개	-11.2627
打磨	-11.2628
▁pull	-11.2628
触	-11.2629
▁Dor	-11.263
▁expensive	-11.263
药品	-11.2631
▁ÁTIRÁNYÍTÁS	-11.2632
▁Local	-11.2633
▁surrounding	-11.2633
▁od	-11.2634
寺	-11.2637
mut	-11.2637
已经准备就绪	-11.2638
日出生	-11.2638
▁union	-11.2639
▁Source	-11.2641
▁jump	-11.2642
mis	-11.2642
人付款	-11.2644
ус	-11.2644
▁mess	-11.2647
ист	-11.2647
将宝贝	-11.2647
亲爱滴	-11.2648
我们将快马加鞭	-11.2651
只待大	-11.2651
etc	-11.2651
送到您府上	-11.2651
适用人数	-11.2651
相中的宝贝	-11.2652
亲爱哒	-11.2652
▁minute	-11.2654
履行	-11.2655
тра	-11.2657
env	-11.2657
動	-11.2658
ак	-11.2658
▁nom	-11.266
▁totally	-11.2661
▁reduction	-11.2661
协会	-11.2663
▁degrees	-11.2663
ого	-11.2667
模	-11.2668
▁cards	-11.2669
데	-11.2669
▁Does	-11.267
▁liberal	-11.2671
▁Comp	-11.2671
oo	-11.2674
▁Pacific	-11.2676
ском	-11.2677
▁Tan	-11.2677
Out	-11.268
Ca	-11.2683
▁relations	-11.2683
岛	-11.2684
▁contra	-11.2685
▁incident	-11.2686
mac	-11.2687
境	-11.2691
bur	-11.2693
▁سنة	-11.2693
▁Ser	-11.2694
▁pr	-11.2694
▁Rep	-11.2694
Don	-11.2695
严	-11.2696
）（	-11.2697
create	-11.27
ár	-11.2701
rea	-11.2703
▁bed	-11.2703
岗位	-11.2703
▁При	-11.2704
深圳	-11.271
▁comprehensive	-11.271
ства	-11.2711
▁referred	-11.2712
profit	-11.2712
kt	-11.2713
evo	-11.2715
▁planned	-11.2715
日常	-11.2716
দ	-11.272
▁expand	-11.2721
cular	-11.2722
Die	-11.2722
fin	-11.2723
各类	-11.2724
距离	-11.2726
▁unable	-11.2728
▁consumers	-11.2731
挑战	-11.2731
露	-11.2733
隆	-11.2737
now	-11.2737
▁aus	-11.2738
▁Geboren	-11.274
▁victims	-11.2741
parent	-11.2743
स्	-11.2743
▁pub	-11.2745
math	-11.2746
운	-11.2749
▁بين	-11.275
一切	-11.275
▁originally	-11.2751
暖	-11.2751
▁소	-11.2752
迅速	-11.2753
▁Has	-11.2753
News	-11.2754
дер	-11.2755
的主要	-11.2755
宇	-11.2757
Jo	-11.2759
▁oder	-11.2759
▁Finally	-11.2759
lain	-11.276
▁partners	-11.276
▁happening	-11.2762
esi	-11.2763
▁possibility	-11.2763
右	-11.2763
▁ف	-11.2765
铝	-11.2765
Yes	-11.2765
习惯	-11.2767
LED	-11.2767
丹	-11.2771
▁typically	-11.2773
>>	-11.2773
';	-11.2774
平均	-11.2776
meter	-11.278
害	-11.278
仁	-11.2785
ای	-11.2786
▁passing	-11.2787
呼	-11.2787
fd	-11.2787
航空	-11.2788
故事	-11.2788
Label	-11.2788
▁exists	-11.2789
▁Unidos	-11.2789
ole	-11.279
▁regard	-11.279
轴	-11.279
▁massive	-11.2792
▁institution	-11.2793
签收	-11.2794
▁sua	-11.2795
▁Field	-11.2797
је	-11.2797
▁Bor	-11.2802
▁Order	-11.2802
▁;;	-11.2802
▁random	-11.2803
构成	-11.2805
使用方法	-11.2805
▁Para	-11.2806
Lo	-11.2806
lig	-11.2807
▁provision	-11.2808
▁Sar	-11.281
发出	-11.281
评价	-11.2811
lab	-11.2811
本文	-11.2811
▁dry	-11.2811
惠	-11.2812
▁Far	-11.2814
тел	-11.2814
▁banks	-11.2816
小题	-11.2818
eren	-11.2819
▁sight	-11.2821
▁Spanish	-11.2822
▁Max	-11.2823
ink	-11.2824
▁Oklahoma	-11.2828
在吗	-11.283
▁Place	-11.2833
ew	-11.2833
仍	-11.2833
مان	-11.2834
如今	-11.2837
▁proposal	-11.2837
ур	-11.2838
▁fundamental	-11.2838
▁£	-11.2842
▁Four	-11.2842
expr	-11.2843
▁usual	-11.2849
能源	-11.285
▁feed	-11.2851
不得	-11.2852
▁closer	-11.2853
just	-11.2853
▁contribute	-11.2854
ION	-11.2855
▁fighting	-11.2861
ında	-11.2862
ун	-11.2862
_\	-11.2864
cle	-11.287
gun	-11.2871
▁leaves	-11.2871
tak	-11.2873
委员会	-11.2874
ソ	-11.2878
터	-11.2878
sis	-11.2879
spir	-11.288
▁Elizabeth	-11.2881
tura	-11.2882
好的亲	-11.2883
▁roman	-11.2887
下单	-11.2888
处于	-11.2889
止	-11.289
工作人员	-11.2891
▁load	-11.2891
車	-11.2892
▁trees	-11.2894
隔	-11.2894
消防	-11.2895
▁Market	-11.2897
":"$	-11.2898
▁seat	-11.2898
rod	-11.2899
这次	-11.2899
▁fat	-11.2901
▁بعد	-11.2901
沉	-11.2903
▁tournament	-11.2904
▁Building	-11.2905
थ	-11.2905
的工作	-11.2906
饭	-11.2906
gla	-11.2906
▁Miami	-11.2907
▁Lady	-11.2908
▁talent	-11.2908
文字	-11.291
▁losing	-11.2911
▁Philadelphia	-11.2911
fold	-11.2912
='	-11.2913
bot	-11.2917
BQ	-11.292
cdot	-11.2922
庆	-11.2922
با	-11.2926
训练	-11.2926
NT	-11.2926
▁accident	-11.2927
SL	-11.2928
قر	-11.2928
▁Heart	-11.2932
▁windows	-11.2932
▁Auto	-11.2933
别人	-11.2935
ова	-11.2935
ition	-11.2937
▁Ali	-11.2939
ட	-11.294
щи	-11.2941
广泛	-11.2942
Status	-11.2945
▁concert	-11.2946
▁primarily	-11.2946
同学	-11.2946
就能	-11.2948
oni	-11.2948
들	-11.2948
▁talked	-11.2949
街道	-11.2952
match	-11.2953
▁frame	-11.2953
▁soft	-11.2953
协议	-11.2955
▁kid	-11.2956
fc	-11.2956
無	-11.2957
▁victim	-11.2959
از	-11.296
ory	-11.2961
▁meetings	-11.2963
▁我来帮您推荐下哦	-11.2964
▁Estados	-11.2964
▁Print	-11.2966
一份	-11.2966
SI	-11.2967
▁dropped	-11.2969
員	-11.2976
▁Football	-11.2978
学会	-11.2979
inger	-11.2979
▁differences	-11.2979
ía	-11.2981
▁telt	-11.2983
▁illegal	-11.2984
▁Clinton	-11.2987
▁보기	-11.2988
▁column	-11.2992
در	-11.2994
扣	-11.2995
BkQf	-11.2995
▁establish	-11.2995
▁professionals	-11.2995
报道	-11.2996
ways	-11.2996
浮	-11.2996
▁exciting	-11.2996
▁obviously	-11.2997
▁하	-11.2997
ència	-11.2998
▁younger	-11.2999
▁Ха	-11.2999
▁zum	-11.2999
most	-11.3
ending	-11.3001
轻松	-11.3001
iidae	-11.3003
DR	-11.3004
▁ber	-11.3006
充电	-11.3007
厅	-11.3007
▁प्र	-11.3008
▁urban	-11.3013
▁component	-11.3014
gri	-11.3014
▁أماكن	-11.3016
苹果	-11.3016
等等	-11.3017
凉	-11.3017
tree	-11.3017
CP	-11.3018
▁arrested	-11.3018
mg	-11.3022
▁سكانها	-11.3025
city	-11.3026
津	-11.3028
▁المراجع	-11.303
迷	-11.303
ika	-11.3031
▁significantly	-11.3033
til	-11.3033
itz	-11.3033
권	-11.3033
▁Kentucky	-11.3033
ZA	-11.3034
▁Не	-11.3035
вен	-11.3035
IO	-11.3036
MB	-11.3038
具备	-11.3039
▁Trade	-11.3042
▁DC	-11.3043
▁비	-11.3044
LY	-11.3045
Source	-11.3045
cul	-11.3045
rig	-11.3045
▁river	-11.3046
▁време	-11.3047
▁winner	-11.3048
心理	-11.3048
ся	-11.305
▁aux	-11.3053
▁spiritual	-11.3053
那些	-11.3055
的地方	-11.3056
语言	-11.3058
금	-11.3059
▁ك	-11.306
▁Eastern	-11.306
▁garden	-11.3065
人可用	-11.3069
▁launched	-11.3069
▁Ball	-11.307
快乐	-11.307
▁equivalent	-11.3071
Р	-11.3071
AF	-11.3072
恩	-11.3072
▁bound	-11.3073
▁Simon	-11.3073
务	-11.3074
▁granted	-11.3076
ow	-11.308
既	-11.308
▁Daily	-11.308
▁Vice	-11.3081
物体	-11.3082
▁Marine	-11.3082
▁scientifique	-11.3082
▁Nord	-11.3083
年生	-11.3083
作业	-11.3084
耳	-11.3085
▁$(	-11.3086
Th	-11.309
小区	-11.309
而是	-11.3091
▁awarded	-11.3092
akan	-11.3094
▁expert	-11.3094
bybtqdyh	-11.3095
升级款豆浆机可以打	-11.3097
frame	-11.3098
▁Ст	-11.3098
▁observed	-11.31
▁seasons	-11.31
tum	-11.3101
ပ	-11.3102
▁nord	-11.3102
▁guard	-11.3105
打果汁	-11.3107
sex	-11.3107
香港	-11.3108
bon	-11.3108
including	-11.3108
▁terminal	-11.3108
您的	-11.311
ず	-11.311
mos	-11.3113
▁repair	-11.3114
power	-11.3116
Context	-11.3117
材	-11.3117
▁정	-11.3119
▁principles	-11.3121
Sa	-11.3121
过去	-11.3123
ター	-11.3123
▁adopted	-11.3123
▁Allen	-11.3124
`*^	-11.3124
▁"[",	-11.3124
▁Democratic	-11.3124
▁empty	-11.3125
猪	-11.3129
▁Jews	-11.3129
▁module	-11.3134
▁authors	-11.3135
▁evil	-11.3137
▁formula	-11.3139
▁combat	-11.3141
than	-11.3143
羊	-11.3145
тер	-11.3146
သည်	-11.3147
マン	-11.3148
▁engine	-11.3152
dio	-11.3152
nica	-11.3153
음	-11.3157
▁Chapter	-11.3157
▁copyright	-11.3158
pot	-11.3158
投入	-11.3158
world	-11.3158
▁selling	-11.3162
mor	-11.3162
虎	-11.3165
▁Space	-11.3166
▁Staff	-11.3167
答	-11.3167
▁latter	-11.3168
▁west	-11.3171
▁Despite	-11.3173
ori	-11.3173
▁generate	-11.3173
rick	-11.3174
性的	-11.3175
후	-11.3177
▁Italian	-11.3177
남	-11.3178
▁sentence	-11.318
gua	-11.3181
▁има	-11.3181
▁protected	-11.3182
rant	-11.3183
▁Из	-11.3184
▁Las	-11.3184
▁reviews	-11.3185
▁switch	-11.3185
同样	-11.3186
▁entitled	-11.3187
▁assert	-11.3188
重大	-11.3188
▁Op	-11.319
▁IV	-11.319
▁Control	-11.3191
php	-11.3191
▁Literatur	-11.3193
▁Agency	-11.3193
▁increases	-11.3199
▁Coast	-11.3199
tica	-11.3204
)]	-11.3204
λ	-11.3206
kh	-11.3207
改造	-11.3208
▁HIV	-11.321
SO	-11.3211
▁intelligence	-11.3212
승	-11.3214
Field	-11.3214
Group	-11.3214
提前	-11.3214
Var	-11.3215
John	-11.3215
▁enable	-11.3217
一家	-11.3217
Ko	-11.3218
▁Area	-11.3218
▁Zu	-11.3219
▁breast	-11.3219
预计	-11.322
▁appointed	-11.3221
氧	-11.3222
▁Wisconsin	-11.3223
砂	-11.3223
▁Bureau	-11.3226
ของ	-11.3227
高速	-11.3228
。（	-11.3232
▁profile	-11.3232
stan	-11.3233
▁bas	-11.3233
▁seconds	-11.3233
▁export	-11.3234
▁literature	-11.3238
arrow	-11.3239
ct	-11.3243
make	-11.3244
事故	-11.3245
目的	-11.3245
强调	-11.3246
▁reserved	-11.3247
Part	-11.3247
通知	-11.3249
险	-11.3256
意义	-11.3257
▁Sciences	-11.3258
▁represents	-11.3258
archive	-11.3259
▁Га	-11.3259
贡献	-11.326
pes	-11.3261
ques	-11.3261
▁DVD	-11.3263
translation	-11.3264
ming	-11.3266
▁electronic	-11.3266
ics	-11.3267
▁ج	-11.3267
ison	-11.3268
▁Fall	-11.3268
▁Articles	-11.3269
▁Nick	-11.3269
ising	-11.3271
ன	-11.3272
郡	-11.3272
碳	-11.3272
sı	-11.3276
▁arguments	-11.3278
欧洲	-11.3279
aging	-11.3279
▁surprised	-11.328
上述	-11.3282
▁valid	-11.3283
MO	-11.3284
iste	-11.3284
是指	-11.3285
شي	-11.3285
▁Mid	-11.3285
grad	-11.3286
▁ob	-11.3288
▁Afghanistan	-11.3289
▁Ford	-11.3289
lur	-11.3291
▁vehicles	-11.3292
▁delivered	-11.3292
迪	-11.3297
床	-11.3297
制定	-11.3297
variable	-11.3299
▁believes	-11.33
ht	-11.3302
UM	-11.3302
▁Т	-11.3302
就有	-11.3304
▁Jun	-11.3307
gent	-11.3309
ego	-11.3312
У	-11.3312
aan	-11.3313
▁belief	-11.3314
▁Britain	-11.3316
▁holiday	-11.3318
功率	-11.332
尺寸	-11.3322
▁contrast	-11.3322
Vi	-11.3323
점	-11.3323
白癜风	-11.3323
န	-11.3324
DO	-11.3325
▁anyway	-11.3326
▁Trans	-11.3327
BE	-11.3328
表达	-11.333
▁Des	-11.333
▁objects	-11.3331
▁somewhat	-11.3333
▁audio	-11.3335
ação	-11.3337
▁carbon	-11.3338
BS	-11.3338
帝	-11.3339
▁technologies	-11.334
▁suit	-11.334
▁License	-11.3341
▁Was	-11.3341
REDIRECT	-11.3343
的方法	-11.3343
qu	-11.3345
▁assessment	-11.3345
资讯	-11.3346
ное	-11.3347
▁Republicans	-11.3348
娱乐	-11.3349
▁Missouri	-11.3349
▁Spring	-11.335
によって	-11.335
映画	-11.335
ина	-11.335
提醒	-11.335
angan	-11.3351
GL	-11.3352
▁folks	-11.3352
负责人	-11.3353
Ja	-11.3353
装饰	-11.3353
▁Tech	-11.3354
▁contributions	-11.3354
▁respectively	-11.3356
각	-11.3357
▁小客服看下呢	-11.3359
竹	-11.336
person	-11.336
onder	-11.3361
固定	-11.3364
SS	-11.3364
▁earn	-11.3364
Model	-11.3367
weight	-11.3371
▁Houston	-11.3374
Up	-11.3374
▁Theatre	-11.3377
▁Follow	-11.3378
▁formal	-11.3379
ates	-11.338
▁ancient	-11.3381
▁awards	-11.3381
▁True	-11.3383
编	-11.3384
ath	-11.3385
室内	-11.3385
融合	-11.3387
IG	-11.3387
▁settings	-11.3387
Pi	-11.3388
▁Greek	-11.339
▁tickets	-11.3391
vit	-11.3393
▁commission	-11.3394
网友	-11.3397
▁comparison	-11.3397
Response	-11.3398
▁sides	-11.3399
▁FOR	-11.3399
려	-11.3399
府	-11.34
评	-11.34
ம	-11.3401
only	-11.3401
▁Mas	-11.3403
公告	-11.3403
vid	-11.3403
是吗	-11.3404
Big	-11.3405
▁seorang	-11.3407
▁Alex	-11.3412
▁Non	-11.3413
▁Resources	-11.3415
xa	-11.3415
缺	-11.3417
▁acts	-11.3417
▁__	-11.3418
FO	-11.3418
CL	-11.3419
▁passion	-11.342
append	-11.3423
ел	-11.3423
涨	-11.3425
▁guilty	-11.3426
▁components	-11.3426
▁wedding	-11.3427
>	-11.3427
ook	-11.343
▁strange	-11.3431
ន	-11.3431
Sub	-11.3432
PRO	-11.3432
▁مأهولة	-11.3434
강	-11.3436
▁thousand	-11.3436
年代	-11.3437
▁rural	-11.3438
阀	-11.344
fs	-11.3441
버	-11.3441
]",	-11.3442
FT	-11.3442
斗	-11.3443
编辑	-11.3443
使用时	-11.3443
집	-11.3443
▁>>	-11.3445
▁flight	-11.3446
涂	-11.3447
有哪些	-11.3448
▁storm	-11.3449
考查	-11.3449
▁Ren	-11.345
হ	-11.3453
aj	-11.3454
判	-11.3455
论	-11.3458
sl	-11.3459
aff	-11.3459
▁glass	-11.3459
);	-11.3461
▁प	-11.3461
쿠	-11.3462
▁को	-11.3462
▁intent	-11.3463
荣	-11.3463
omega	-11.3463
بو	-11.3464
一天	-11.3465
業	-11.3466
▁Dean	-11.3467
▁newspaper	-11.3468
多种	-11.3468
▁apparently	-11.3471
▁picked	-11.3471
により	-11.3474
▁ultimately	-11.3474
▁custom	-11.3475
官网	-11.3476
sive	-11.3477
▁đổi	-11.3479
User	-11.3481
▁infrastructure	-11.3482
method	-11.3483
怀	-11.3485
施	-11.3486
Image	-11.3488
电池	-11.3488
FD	-11.3489
高度	-11.349
जा	-11.349
раз	-11.3494
fen	-11.3495
CM	-11.3496
▁Kabupaten	-11.3496
预防	-11.3496
▁Tor	-11.3496
CF	-11.3499
▁appreciate	-11.35
▁transport	-11.35
UP	-11.3501
র্	-11.3502
▁تعداد	-11.3504
不足	-11.3506
优质	-11.3506
▁français	-11.3506
▁seus	-11.3507
each	-11.3507
내	-11.3509
▁sp	-11.3511
ами	-11.3511
▁turns	-11.3512
tte	-11.3513
▁남	-11.3513
▁relief	-11.3515
▁အ	-11.3515
GS	-11.3516
®	-11.3516
ians	-11.3517
▁upper	-11.3517
▁ब	-11.3519
承	-11.352
yu	-11.3521
确认	-11.3521
▁button	-11.3525
}+	-11.3525
TE	-11.3526
甜	-11.3526
▁busy	-11.353
一场	-11.353
▁recommended	-11.3531
▁dealing	-11.3532
cial	-11.3533
▁Ter	-11.3534
such	-11.3535
溶液	-11.3536
劳动	-11.3538
▁owned	-11.3539
rit	-11.3539
▁Ireland	-11.3541
hon	-11.3542
企	-11.3546
小学	-11.3546
借	-11.3546
gs	-11.3546
ड	-11.3547
▁az	-11.3549
▁আ	-11.3554
▁feels	-11.3554
▁answers	-11.3554
适应	-11.3555
▁به	-11.3559
▁وي	-11.3561
防烫手	-11.3562
ille	-11.3562
pVMkl	-11.3563
▁practical	-11.3565
扬	-11.3566
▁fifth	-11.3567
▁Books	-11.3567
java	-11.3567
▁Х	-11.357
がある	-11.3571
ый	-11.3573
သ	-11.3573
▁Age	-11.3573
編	-11.3576
▁Hard	-11.3576
文学	-11.3576
强化	-11.3576
▁valuable	-11.3577
▁seriously	-11.3577
copy	-11.3578
Ho	-11.3579
▁margin	-11.3579
互	-11.3579
▁solar	-11.3579
获取	-11.3583
	-11.3586
健	-11.3587
▁Penn	-11.3589
▁engaged	-11.359
公开	-11.3593
▁log	-11.3593
▁Ak	-11.3593
pul	-11.3594
▁helpful	-11.3595
▁Amazon	-11.3597
EST	-11.3597
▁Indiana	-11.3598
WA	-11.3598
▁anywhere	-11.3599
elli	-11.3599
▁Howard	-11.36
مي	-11.36
宫	-11.36
気	-11.3601
ू	-11.3601
شر	-11.3602
▁convert	-11.3604
▁NCAA	-11.3605
相比	-11.3606
喜欢带走哈亲亲	-11.3606
食物	-11.3606
ious	-11.3606
▁pattern	-11.3607
க்	-11.3607
▁stores	-11.3612
享	-11.3613
吸收	-11.3615
ș	-11.3615
▁horse	-11.3617
▁severe	-11.3618
世纪	-11.3619
пол	-11.3619
ilde	-11.3619
▁Thu	-11.362
：$	-11.3626
ров	-11.3626
cel	-11.3626
MM	-11.3629
▁Northern	-11.363
▁Tony	-11.3631
க்க	-11.3632
эр	-11.3633
child	-11.3634
设施	-11.3634
▁Amendment	-11.3636
▁worldwide	-11.3636
高校	-11.3638
▁경	-11.3638
成分	-11.3639
표	-11.364
▁Lincoln	-11.364
攻	-11.364
▁sie	-11.3642
▁Roma	-11.3642
Br	-11.3643
电脑	-11.3643
▁ordered	-11.3649
真正	-11.3651
NC	-11.3654
dic	-11.3655
bank	-11.3656
▁worry	-11.3657
mov	-11.3658
mond	-11.3662
lap	-11.3662
ثر	-11.3662
UT	-11.3663
▁مقاطعة	-11.3663
▁tea	-11.3664
live	-11.3666
UN	-11.3666
бу	-11.3667
▁Maryland	-11.3667
▁acting	-11.3668
LP	-11.3669
应当	-11.367
▁Wi	-11.367
är	-11.3671
ит	-11.3671
▁fail	-11.3671
艺	-11.3672
▁су	-11.3673
▁около	-11.3673
▁rose	-11.3676
bell	-11.3678
鲜	-11.3682
alis	-11.3684
▁featured	-11.369
地球	-11.3692
кар	-11.3692
▁Author	-11.3693
案件	-11.3693
=\	-11.3694
▁largely	-11.3694
▁Games	-11.3695
哥	-11.3695
▁Bon	-11.3696
isation	-11.3696
ás	-11.3697
开启	-11.3698
ois	-11.3702
▁Lista	-11.3703
幕	-11.3706
状况	-11.3706
解答	-11.3708
▁island	-11.3709
или	-11.371
Phys	-11.3714
▁Apr	-11.3715
然而	-11.3715
ង	-11.3715
ific	-11.3716
▁Hollywood	-11.3717
洞	-11.3717
▁volunteer	-11.3721
▁sad	-11.3721
▁frequently	-11.3721
流量	-11.3721
য়	-11.3722
च	-11.3723
gle	-11.3723
bor	-11.3725
放在	-11.3725
磁	-11.3726
▁externos	-11.3726
▁harm	-11.3727
虚	-11.3728
dı	-11.3728
会有	-11.3733
▁thread	-11.3733
ikan	-11.3733
next	-11.3735
▁revealed	-11.3735
竞争	-11.3735
');	-11.3736
را	-11.3737
ige	-11.3737
اف	-11.3739
++	-11.374
SM	-11.3742
▁deutscher	-11.3744
ters	-11.3745
▁fu	-11.3745
▁été	-11.3746
hum	-11.3746
▁passage	-11.3747
▁competitive	-11.375
豪	-11.375
▁hasn	-11.3752
▁هذه	-11.3753
aya	-11.3753
된다	-11.3754
ロー	-11.3755
▁realized	-11.3755
vé	-11.3755
ката	-11.3757
▁steht	-11.3758
hill	-11.3758
如下	-11.3759
rac	-11.376
的原因	-11.3763
More	-11.3765
سي	-11.3766
试验	-11.3767
$\	-11.377
▁agents	-11.3771
rom	-11.3772
球员	-11.3773
▁Summer	-11.3773
尤其是	-11.3773
Row	-11.3774
즈	-11.3775
DI	-11.3777
监管	-11.3778
▁Clark	-11.3779
▁Defense	-11.3781
▁resulting	-11.3781
▁locations	-11.3781
による	-11.3782
مة	-11.3783
ো	-11.3784
妈妈	-11.3784
嘉	-11.3786
Why	-11.3789
医学	-11.3792
▁Ал	-11.3792
▁alcohol	-11.3793
▁Lin	-11.3794
▁등	-11.3794
▁province	-11.3795
时尚	-11.3799
لا	-11.3801
▁##	-11.3804
author	-11.3805
依	-11.3805
CB	-11.3809
操作简单	-11.381
öl	-11.3811
宣	-11.3813
相互	-11.3815
▁Israeli	-11.3819
bad	-11.382
突破	-11.3821
Web	-11.3821
不少	-11.3821
▁drivers	-11.3823
school	-11.3823
感受	-11.3824
机会	-11.3824
▁buying	-11.3825
▁presentation	-11.3825
▁تم	-11.3826
со	-11.3828
▁therapy	-11.3828
▁Major	-11.3829
。​​	-11.3829
▁suffering	-11.3832
平衡	-11.3834
after	-11.3835
ars	-11.3836
▁Perhaps	-11.3836
▁Ла	-11.3837
▁Ross	-11.3838
▁bomb	-11.3839
▁risks	-11.384
引起	-11.3841
▁inform	-11.3844
混	-11.3845
Cell	-11.3845
有什么问题都是可以咨询小客服的亲	-11.3846
ası	-11.3846
人体	-11.3847
Com	-11.3847
有利于	-11.3847
мет	-11.3847
之间的	-11.3848
哪	-11.3849
▁expansion	-11.3849
▁Website	-11.3849
yi	-11.3853
▁Dave	-11.3854
ラー	-11.3854
▁foundation	-11.3857
▁الف	-11.3857
▁walked	-11.3859
aga	-11.3859
宜	-11.386
申	-11.3861
紫	-11.3862
▁PA	-11.3862
ベ	-11.3862
阳光	-11.3862
▁poly	-11.3864
ops	-11.3865
tant	-11.3865
▁drink	-11.3866
▁guest	-11.3869
清洁	-11.3869
▁effectively	-11.387
hour	-11.3871
mag	-11.3872
▁Pra	-11.3872
တွင်	-11.3873
NS	-11.3874
ា	-11.3874
不了	-11.3876
May	-11.3878
它们	-11.3881
杰	-11.3881
isa	-11.3883
电视	-11.3884
▁expenses	-11.3885
▁transportation	-11.3885
iter	-11.3889
会员	-11.3889
bach	-11.389
▁grown	-11.3891
Ver	-11.3893
메	-11.3894
""|	-11.3895
▁arrest	-11.3898
▁genre	-11.3898
ente	-11.3899
न्	-11.3902
▁reader	-11.3902
薄	-11.3903
▁beauty	-11.3904
дел	-11.3904
▁continuing	-11.3906
▁choices	-11.3906
▁offensive	-11.3906
治理	-11.3906
▁submit	-11.3907
▁closely	-11.3907
▁fairly	-11.3908
移	-11.3909
fu	-11.3909
how	-11.3911
▁eligible	-11.3912
▁publication	-11.3915
است	-11.3917
▁visitors	-11.3918
sey	-11.3918
গ	-11.3918
▁shift	-11.3919
▁pp	-11.3922
氧化	-11.3923
▁capable	-11.3924
Stream	-11.3925
실	-11.3926
是由	-11.3926
ides	-11.3928
▁outstanding	-11.3929
婚	-11.3929
▁rain	-11.393
insert	-11.3933
ть	-11.3933
融	-11.3935
pic	-11.3936
▁collect	-11.3936
▁bigger	-11.3936
▁Ham	-11.3937
▁episode	-11.3937
的大	-11.3938
▁Which	-11.3939
atus	-11.3942
▁semi	-11.3943
▁Jose	-11.3943
▁killing	-11.3944
lung	-11.3945
:\"	-11.3946
▁contained	-11.3946
▁directory	-11.3947
巨	-11.3947
반	-11.3947
cade	-11.3948
▁explanation	-11.3949
▁reply	-11.395
▁Person	-11.395
核心	-11.3951
Point	-11.3952
ред	-11.3953
▁Bir	-11.3954
主任	-11.3954
▁specified	-11.3956
▁historic	-11.3956
一位	-11.3956
▁Senator	-11.3961
Element	-11.3963
测量	-11.3963
故答案为	-11.3964
utter	-11.3966
▁Familienname	-11.3968
▁papers	-11.3968
珠	-11.3968
▁suggests	-11.397
▁cuts	-11.3971
lands	-11.3972
▁claimed	-11.3972
▁innovation	-11.3974
hood	-11.3974
tier	-11.3974
▁Look	-11.3975
NA	-11.3975
莫	-11.3975
▁hi	-11.3976
ява	-11.3978
▁Pakistan	-11.3982
▁implement	-11.3984
识别	-11.3985
']	-11.3985
▁opposite	-11.3988
考点	-11.3988
▁submitted	-11.399
ние	-11.3991
▁Tennessee	-11.3992
全体	-11.3993
围	-11.3996
▁fruit	-11.3996
办法	-11.3997
▁Magazine	-11.3997
▁Па	-11.3997
cision	-11.3998
wo	-11.3998
▁permanent	-11.3998
韩	-11.3998
▁대한민국의	-11.4
lent	-11.4002
zel	-11.4002
▁Ле	-11.4003
装备	-11.4005
高一	-11.4006
Our	-11.4007
▁aspect	-11.4008
TD	-11.4009
▁kinds	-11.401
上面	-11.401
▁Its	-11.4011
эн	-11.4014
ラン	-11.4015
ため	-11.4017
▁Pol	-11.4018
扩大	-11.4018
▁Affairs	-11.4019
▁Ра	-11.4019
▁atau	-11.4021
ик	-11.4024
bie	-11.4025
▁Tr	-11.4026
插	-11.4026
▁talks	-11.4027
▁processing	-11.4027
▁imp	-11.4028
▁mouth	-11.4028
▁turning	-11.4029
ž	-11.4029
▁protest	-11.4031
린	-11.4032
▁wealth	-11.4035
сел	-11.4037
菌	-11.4038
BO	-11.4038
vu	-11.4039
cri	-11.4039
▁Het	-11.4039
▁associate	-11.4041
sburg	-11.4041
网点哦	-11.4042
暗	-11.4044
资	-11.4047
proof	-11.4048
秦	-11.405
或者直接扫描	-11.405
▁diverse	-11.4051
升大容量	-11.4051
▁Stu	-11.4051
电话联系一下	-11.4051
到货晒图	-11.4052
查询就近	-11.4052
以免跑空	-11.4052
遇到售后问题时	-11.4052
建议亲亲先	-11.4052
▁小程序查询	-11.4052
九阳官方	-11.4053
▁stands	-11.4053
▁Spirit	-11.4054
▁widely	-11.4054
module	-11.4055
ге	-11.4055
▁пункты	-11.4056
视频哈	-11.4056
▁superior	-11.4058
▁organ	-11.4059
rou	-11.4061
让你	-11.4061
GP	-11.4063
▁Village	-11.4063
▁пред	-11.4064
▁Berg	-11.4064
Client	-11.4065
环节	-11.4069
sym	-11.4069
响	-11.4069
真实	-11.4071
server	-11.4071
▁Sud	-11.4073
市民	-11.4075
资格	-11.4075
东西	-11.4077
年的	-11.4079
资产	-11.408
▁[]	-11.4081
▁coast	-11.4081
كا	-11.4082
Ed	-11.4082
심	-11.4083
복	-11.4086
called	-11.4087
意见	-11.4089
引导	-11.4089
End	-11.4089
▁applicable	-11.4092
出版	-11.4092
▁Anderson	-11.4093
ales	-11.4094
▁Irish	-11.4094
▁주	-11.4094
父	-11.4095
▁invited	-11.4096
▁Avenue	-11.4097
瓦	-11.4098
Ref	-11.4099
▁extensive	-11.4101
▁Stone	-11.4103
篇	-11.4105
pil	-11.4105
▁Among	-11.4106
▁afford	-11.4106
ış	-11.4107
بع	-11.4107
▁Mai	-11.4108
元亲	-11.4108
暴	-11.4109
iya	-11.4112
night	-11.4114
icon	-11.4115
say	-11.4116
▁Sport	-11.4117
▁partition	-11.4117
这边	-11.4118
▁comfort	-11.4118
▁immediate	-11.4118
旗	-11.412
もの	-11.4122
▁Diego	-11.4122
▁Sat	-11.4122
颜色	-11.4125
だ	-11.4125
值得	-11.4125
عة	-11.4127
示	-11.413
放送	-11.413
今日	-11.4131
下来	-11.4131
▁houses	-11.4132
疫情防控	-11.4133
नी	-11.4135
▁purchased	-11.4135
▁sick	-11.4136
업	-11.4136
腿	-11.4136
uma	-11.4137
▁guitar	-11.4137
著	-11.4141
犯	-11.4141
▁Bridge	-11.4141
imo	-11.4142
校园	-11.4143
teen	-11.4145
弹	-11.4145
▁OR	-11.4145
impl	-11.4145
▁partnership	-11.4146
▁Italy	-11.415
档	-11.415
▁Navy	-11.4151
▁flat	-11.4158
八年级	-11.416
▁DO	-11.416
出了	-11.4162
平时	-11.4163
▁NO	-11.4163
▁stick	-11.4165
ទ	-11.4165
▁shouldn	-11.4165
▁emotional	-11.4169
▁также	-11.4169
▁무	-11.417
▁diet	-11.4171
▁tersebut	-11.4173
▁Alexander	-11.4173
的位置	-11.4174
念	-11.4176
麦	-11.4177
▁$","	-11.4177
▁sind	-11.4177
sten	-11.4178
日に	-11.4181
勇	-11.4181
▁exhibition	-11.4185
LI	-11.4186
cam	-11.4188
▁crew	-11.4189
병	-11.419
▁permission	-11.4192
哦亲	-11.4192
▁Action	-11.4193
▁extension	-11.4194
Ne	-11.4195
▁visual	-11.4197
▁eating	-11.4198
▁army	-11.4198
Create	-11.4199
▁Patrick	-11.4201
HC	-11.4202
▁Though	-11.4203
ခ	-11.4204
▁consideration	-11.4206
ум	-11.4206
cies	-11.4207
药物	-11.4207
ough	-11.4211
ash	-11.4212
empty	-11.4213
▁automatically	-11.4214
sil	-11.4214
Load	-11.4215
테	-11.4215
▁Ein	-11.4216
اني	-11.4217
▁CO	-11.4218
Redirecionamento	-11.4218
坏	-11.4219
定位	-11.4221
键	-11.4221
▁variable	-11.4222
▁Through	-11.4222
▁स	-11.4223
▁tele	-11.4225
▁noticed	-11.4225
▁transform	-11.4225
burn	-11.4225
▁array	-11.4226
▁Res	-11.4226
▁Bat	-11.4226
flow	-11.423
тур	-11.4231
贸易	-11.4231
河南	-11.4231
▁payments	-11.4231
▁Down	-11.4232
கள்	-11.4233
▁solo	-11.4233
▁restaurant	-11.4235
在这里	-11.4235
▁solve	-11.4241
▁finance	-11.4241
▁broadcast	-11.4241
▁أيضا	-11.4243
▁Cro	-11.4244
▁recall	-11.4244
好了	-11.4244
▁soldiers	-11.4244
dict	-11.4247
▁kitchen	-11.4247
vier	-11.425
历	-11.425
eli	-11.4251
▁accurate	-11.4251
伦	-11.4252
▁concerning	-11.4253
▁messages	-11.4253
▁Barcelona	-11.4254
▁evaluation	-11.4255
host	-11.4258
▁maintenance	-11.4258
round	-11.4261
ying	-11.4262
▁strategies	-11.4262
アン	-11.4263
тя	-11.4264
陆	-11.4265
▁founded	-11.4266
▁Forum	-11.4267
what	-11.4269
жа	-11.427
▁Wal	-11.427
广东	-11.4271
AE	-11.4271
▁Bol	-11.4272
ам	-11.4272
Can	-11.4272
七年级	-11.4272
冠	-11.4272
▁represented	-11.4272
vent	-11.4273
▁collected	-11.4274
كس	-11.4274
藤	-11.4275
最好	-11.4275
tas	-11.4277
▁intellectual	-11.4277
aven	-11.4278
▁classroom	-11.4281
far	-11.4281
▁Reg	-11.4282
▁Rob	-11.4284
▁topics	-11.4285
经典	-11.4286
▁nations	-11.4286
手术	-11.4286
pers	-11.4287
▁Annual	-11.4287
▁voters	-11.4287
وع	-11.4288
وت	-11.4292
nam	-11.4293
▁possession	-11.4294
BR	-11.4294
▁exposure	-11.4295
▁Pur	-11.4296
▁Со	-11.4296
oy	-11.4297
人民币	-11.4297
▁abortion	-11.4298
▁Rad	-11.4299
忠	-11.4299
▁organized	-11.4299
乘	-11.4301
亦	-11.4301
▁sufficient	-11.4301
▁김	-11.4301
期待	-11.4303
eti	-11.4304
DG	-11.4304
▁investors	-11.4307
ington	-11.4307
اق	-11.4309
▁shoot	-11.4309
以前	-11.4315
ют	-11.4316
▁opposition	-11.4317
SW	-11.4318
enberg	-11.4319
pri	-11.4321
▁با	-11.4322
结束	-11.4322
zione	-11.4323
▁sont	-11.4324
分类	-11.4324
▁lay	-11.4325
吨	-11.4325
的情况	-11.4327
항	-11.4328
sure	-11.4328
▁Hay	-11.433
în	-11.4331
▁Pla	-11.4332
ници	-11.4333
▁وأ	-11.4333
女子	-11.4334
進	-11.4335
兼	-11.4335
▁reaction	-11.4336
iti	-11.4336
后的	-11.4337
PO	-11.4337
探索	-11.434
xml	-11.4341
Page	-11.4342
比例	-11.4343
▁decline	-11.4344
find	-11.4345
Te	-11.4345
bia	-11.4347
share	-11.4348
note	-11.4348
▁administrative	-11.4348
▁improvement	-11.4353
▁echo	-11.4354
summary	-11.4354
的生活	-11.4354
▁Mountain	-11.4354
的产品	-11.4356
点开网址	-11.4356
▁Mun	-11.4357
SH	-11.4359
▁연	-11.4359
„	-11.4362
▁Siehe	-11.4363
▁Study	-11.4365
▁====	-11.4365
header	-11.4366
ピ	-11.4366
gon	-11.4366
number	-11.4366
▁Country	-11.4367
عد	-11.4367
▁Christians	-11.4369
▁regime	-11.4369
っ	-11.437
lama	-11.4371
▁answered	-11.4371
Now	-11.4372
dies	-11.4375
hir	-11.4376
ян	-11.4378
gia	-11.4379
▁behalf	-11.438
台湾	-11.4382
equal	-11.4384
eş	-11.4384
日本の	-11.4384
本案	-11.4386
▁Den	-11.4387
▁ongoing	-11.4387
。“	-11.439
poli	-11.4391
▁split	-11.4392
▁Democrats	-11.4392
▁retirement	-11.4393
▁Muslim	-11.4393
▁courts	-11.4394
▁ends	-11.4394
▁Regional	-11.4396
▁junior	-11.4396
판	-11.4396
▁za	-11.4398
先进	-11.4398
▁baş	-11.4402
▁recording	-11.4402
false	-11.4402
heim	-11.4404
atan	-11.4405
tò	-11.4406
dim	-11.4407
涉及	-11.4408
▁Alabama	-11.4408
▁honest	-11.4408
▁evolution	-11.4409
quad	-11.4409
▁الولايات	-11.4409
逆	-11.441
éri	-11.4411
▁Collection	-11.4412
watch	-11.4414
▁Run	-11.4415
hem	-11.4416
▁personally	-11.4416
顺利	-11.4417
▁suspect	-11.4417
种植	-11.4417
Char	-11.4419
лов	-11.4419
др	-11.4419
務	-11.4421
rc	-11.4422
브	-11.4422
缘	-11.4422
红色	-11.4424
ゴ	-11.4424
▁الذي	-11.4425
ston	-11.4427
▁unter	-11.4428
湾	-11.4428
▁Nu	-11.4429
▁Anna	-11.4429
▁recognition	-11.443
▁Nations	-11.4431
Kru	-11.4432
оч	-11.4432
CT	-11.4432
塑料	-11.4432
kay	-11.4433
ি	-11.4434
老人	-11.4434
へ	-11.4435
▁Hotel	-11.4436
▁wins	-11.4437
ancing	-11.4438
▁Kan	-11.4438
EM	-11.4441
始	-11.4442
▁sum	-11.4443
▁parameters	-11.4444
kind	-11.4447
▁Child	-11.4448
如果你	-11.4448
lee	-11.4449
جن	-11.4449
주의	-11.4449
▁Rio	-11.4451
skip	-11.4452
对方	-11.4452
▁provider	-11.4453
▁Net	-11.4455
买的	-11.4455
Tr	-11.4462
력	-11.4463
▁apart	-11.4467
จ	-11.4467
awa	-11.4468
▁successfully	-11.4468
一周	-11.4469
rian	-11.4469
浙江	-11.447
▁Published	-11.4472
ば	-11.4472
▁struggle	-11.4472
Pr	-11.4474
ется	-11.4474
Tool	-11.4474
▁merely	-11.4474
Val	-11.4475
▁между	-11.4477
filename	-11.448
贷款	-11.4482
アル	-11.4483
plot	-11.4483
ุ	-11.4484
有了	-11.4486
▁parte	-11.4488
лин	-11.4491
his	-11.4491
▁لا	-11.4492
bm	-11.4492
្	-11.4492
quot	-11.4493
跌	-11.4493
▁resident	-11.4494
上市	-11.4494
▁Description	-11.4496
▁Jordan	-11.4496
▁poverty	-11.4496
▁Step	-11.4497
▁Egypt	-11.4498
▁settlement	-11.4498
yon	-11.4499
FM	-11.45
▁saved	-11.4501
uda	-11.4502
となった	-11.4503
▁compare	-11.4503
iri	-11.4504
▁Greg	-11.4505
target	-11.4505
▁molt	-11.4506
tac	-11.4506
ён	-11.4507
▁Matthew	-11.4507
▁roof	-11.4512
▁lawyer	-11.4512
▁Form	-11.4514
▁Ç	-11.4516
洪	-11.4516
月份	-11.4517
▁engage	-11.4519
trans	-11.452
ствен	-11.4521
追求	-11.4521
abs	-11.4523
▁Capital	-11.4525
▁Help	-11.4525
熟	-11.4525
See	-11.4526
原子	-11.4528
▁Table	-11.4528
بار	-11.4528
Location	-11.4531
▁doctors	-11.4532
Li	-11.4534
tat	-11.4535
▁Islam	-11.4535
▁joy	-11.4535
民主	-11.4535
▁pilot	-11.4536
郭	-11.4537
▁über	-11.4537
halt	-11.4537
回答	-11.4538
他们的	-11.4539
▁hopes	-11.4539
▁Dia	-11.454
dTf	-11.454
▁Ok	-11.454
▁Tro	-11.4542
丰富的	-11.4543
PL	-11.4543
▁Jason	-11.4543
▁videos	-11.4543
Bi	-11.4544
自定义	-11.4544
▁Point	-11.4544
▁strike	-11.4546
▁stream	-11.4547
tgah	-11.4548
▁uniform	-11.4548
iana	-11.4549
HP	-11.455
▁kick	-11.4551
سر	-11.4551
渠道	-11.4553
ले	-11.4554
▁Ram	-11.4555
小客服看下	-11.4555
gut	-11.4555
益	-11.4557
的基本	-11.4557
Spec	-11.4557
▁Detroit	-11.4558
azione	-11.4558
▁generated	-11.4559
leq	-11.4559
人工	-11.4559
▁sorry	-11.4559
▁extreme	-11.4562
不要赠品	-11.4564
小客服看下订单呢	-11.4565
▁retired	-11.4566
ario	-11.4567
▁Seattle	-11.4567
毕竟	-11.4568
fla	-11.4569
зе	-11.4569
在优惠	-11.4571
▁град	-11.4572
acions	-11.4572
▁facing	-11.4572
▁حيث	-11.4573
▁الص	-11.4573
审判员	-11.4575
▁المملكة	-11.4575
多个	-11.4577
▁Gas	-11.4577
Gu	-11.4578
known	-11.4581
▁Yo	-11.4581
ир	-11.4584
的能力	-11.4587
ți	-11.4588
開	-11.4588
公里	-11.4588
▁Kelly	-11.459
▁golf	-11.4593
▁Francis	-11.4593
▁Unfortunately	-11.4593
▁injuries	-11.4594
▁Whether	-11.4595
was	-11.4595
▁strategic	-11.4595
▁bear	-11.4597
两种	-11.4597
より	-11.46
第四	-11.46
周期	-11.4602
程序	-11.4604
▁Using	-11.4606
凡	-11.4608
专业的	-11.4608
▁si	-11.4609
ित	-11.461
▁actor	-11.4611
▁cable	-11.4617
▁Full	-11.4618
ering	-11.4621
突出	-11.4622
mini	-11.4622
maker	-11.4623
▁Test	-11.4624
重庆	-11.4625
▁bond	-11.4625
▁involving	-11.4626
戴	-11.4627
▁findings	-11.4627
aba	-11.4628
č	-11.4628
圣	-11.4628
Format	-11.4629
▁virtual	-11.4629
▁understood	-11.463
▁None	-11.4631
作出	-11.4634
serv	-11.4634
体现	-11.4634
ু	-11.4635
去年	-11.4635
加快	-11.4635
针	-11.4636
byte	-11.4637
▁был	-11.4637
▁Come	-11.4638
怎样	-11.4638
▁discover	-11.464
▁bodies	-11.464
кс	-11.4642
google	-11.4644
jur	-11.4645
▁coffee	-11.4646
zar	-11.4647
▁tri	-11.4647
▁inspired	-11.4648
▁Convention	-11.465
nor	-11.465
议	-11.465
PH	-11.4651
▁قدم	-11.4651
岗	-11.4652
▁($	-11.4652
вър	-11.4652
EF	-11.4654
▁Oregon	-11.4654
▁ciutat	-11.4655
相同	-11.4655
▁Save	-11.4655
▁pleased	-11.4656
特别是	-11.4657
组合	-11.4658
生长	-11.4658
▁Again	-11.466
中药	-11.4661
▁defensive	-11.4662
▁advertising	-11.4664
▁struck	-11.4665
HO	-11.4665
▁depending	-11.4666
Term	-11.4667
▁blind	-11.4668
gin	-11.4669
▁suffer	-11.467
▁font	-11.467
分为	-11.4671
take	-11.4672
▁Ms	-11.4674
▁faster	-11.4675
▁confirmed	-11.4676
▁사용	-11.4677
வி	-11.4678
▁Ob	-11.4682
从事	-11.4683
迎	-11.4686
then	-11.4687
▁compete	-11.4688
恒	-11.4688
ライ	-11.4688
▁Prime	-11.4688
▁narrow	-11.4689
quin	-11.4692
认证	-11.4692
汇	-11.4693
aw	-11.4694
▁Him	-11.4696
raz	-11.4698
▁manufacturing	-11.4698
▁association	-11.4698
GO	-11.4701
▁prop	-11.4702
昭和	-11.4702
ungs	-11.4703
▁Rick	-11.4704
▁funny	-11.4704
▁experiment	-11.4704
▁Kennedy	-11.4704
Link	-11.4706
▁coll	-11.4707
DP	-11.4712
▁personnel	-11.4712
왕	-11.4715
태	-11.4717
pose	-11.4718
▁Case	-11.4719
していた	-11.4719
Am	-11.4719
ност	-11.4726
▁Fin	-11.4728
▁geo	-11.4728
详细	-11.4737
zero	-11.4737
sys	-11.4738
推出	-11.4741
AN	-11.4743
OL	-11.4745
诺	-11.4745
ป	-11.4747
Posted	-11.4748
igen	-11.4748
第一次	-11.4748
▁Wild	-11.475
ire	-11.4751
驾驶	-11.4751
VI	-11.4752
▁depends	-11.4753
▁Pac	-11.4754
곡	-11.4754
LS	-11.4754
众多	-11.4754
kle	-11.4756
▁Atlanta	-11.4758
ဆ	-11.4759
▁Moore	-11.476
away	-11.476
▁Voir	-11.4761
rug	-11.4763
SD	-11.4767
Base	-11.4767
lg	-11.4768
▁chose	-11.4769
▁години	-11.4771
UL	-11.4773
rk	-11.4773
▁errors	-11.4773
Op	-11.4775
▁suffered	-11.4779
IV	-11.478
离子	-11.4781
▁somewhere	-11.4782
▁الر	-11.4783
▁assault	-11.4784
更好的	-11.4784
ポ	-11.4784
▁Sarah	-11.4785
情绪	-11.4785
ienne	-11.4785
′	-11.4786
▁Hand	-11.4787
▁privacy	-11.4787
ación	-11.4788
Х	-11.4789
▁basically	-11.4789
▁Fed	-11.4791
回复	-11.4795
▁Digital	-11.4796
▁CA	-11.4797
的同时	-11.4797
▁singer	-11.4798
mun	-11.4802
دو	-11.4802
pus	-11.4803
▁Sometimes	-11.4803
IR	-11.4803
▁conclusion	-11.4804
▁Sign	-11.4804
esta	-11.4805
▁USB	-11.4807
▁mini	-11.4807
dale	-11.4809
설	-11.4809
链	-11.4811
▁Gran	-11.4812
▁Jon	-11.4815
▁visiting	-11.4815
名称	-11.4815
▁dia	-11.4816
▁situations	-11.4817
▁collaboration	-11.4818
▁Disney	-11.4822
▁vital	-11.4823
填空题	-11.4824
▁regions	-11.4825
ère	-11.4825
oph	-11.4826
height	-11.4826
shire	-11.4826
▁employed	-11.4827
▁Pass	-11.4828
▁troops	-11.4828
Port	-11.483
pol	-11.4832
কা	-11.4833
์	-11.4833
пис	-11.4835
final	-11.4837
▁Walter	-11.4839
MU	-11.484
▁Sep	-11.4841
▁Cer	-11.4841
▁roll	-11.4842
▁sugar	-11.4843
ō	-11.4843
一致	-11.4843
▁participation	-11.4843
▁awareness	-11.4844
das	-11.4846
总结	-11.4848
▁Region	-11.4849
▁gender	-11.4849
▁unknown	-11.485
▁promise	-11.4851
▁Price	-11.4852
案例	-11.4854
bri	-11.4854
plan	-11.4855
▁loans	-11.4856
ony	-11.4856
ture	-11.4857
▁Death	-11.4858
塞	-11.4858
래	-11.4858
mine	-11.4859
bind	-11.4859
ира	-11.4859
锁	-11.4861
▁hoping	-11.4861
▁sought	-11.4864
动态	-11.4865
▁orders	-11.4866
());	-11.4867
指数	-11.4867
▁cat	-11.4867
▁qualified	-11.4868
▁Neu	-11.4868
▁Boy	-11.4872
▁trend	-11.4872
▁для	-11.4872
▁networks	-11.4873
▁वि	-11.4873
▁writers	-11.4875
▁neighborhood	-11.4875
ры	-11.4876
▁capture	-11.4878
pf	-11.4878
▁afraid	-11.4882
的一个	-11.4883
청	-11.4888
SF	-11.4888
살	-11.4889
element	-11.4889
▁منابع	-11.489
提示	-11.4891
公共	-11.4891
▁rent	-11.4892
Net	-11.4894
▁Bla	-11.4894
Script	-11.4894
립	-11.4899
▁everybody	-11.4901
ked	-11.4903
▁theme	-11.4905
cio	-11.4906
circ	-11.4907
void	-11.4907
▁pure	-11.4911
ото	-11.4911
▁principle	-11.4912
▁chain	-11.4915
▁Литература	-11.4915
▁Pet	-11.4916
往往	-11.4916
▁NEW	-11.4916
▁communications	-11.4918
▁có	-11.492
▁studied	-11.492
▁Officer	-11.4921
▁sand	-11.4921
英雄	-11.4921
▁wird	-11.4923
售后	-11.4924
Log	-11.4924
vir	-11.4927
lü	-11.4927
axis	-11.493
▁streets	-11.4931
仓库	-11.4932
▁Win	-11.4933
可以的	-11.4933
▁després	-11.4934
▁Gla	-11.4934
년에	-11.4934
▁weren	-11.4937
可是	-11.4938
matic	-11.4938
幼	-11.4938
▁predict	-11.4938
nell	-11.494
▁Лу	-11.4941
month	-11.4941
呀	-11.4943
大部分	-11.4943
]],	-11.4943
hash	-11.4947
json	-11.4949
▁admitted	-11.4949
ช	-11.495
uan	-11.4951
监测	-11.4951
▁linked	-11.4951
TT	-11.4952
생	-11.4952
ین	-11.4952
▁EU	-11.4955
▁disaster	-11.4955
成员	-11.4956
mur	-11.4957
enne	-11.4957
フィ	-11.4957
▁Про	-11.4957
ys	-11.496
近期	-11.496
lusion	-11.496
eni	-11.496
▁exception	-11.496
RY	-11.496
▁RE	-11.496
▁east	-11.4961
▁err	-11.4963
FY	-11.4963
قل	-11.4963
▁Title	-11.4963
▁universe	-11.4966
▁Room	-11.4967
hom	-11.4968
AG	-11.4969
BkyR	-11.497
劳	-11.4971
苗	-11.4973
顿	-11.4974
▁Economic	-11.4974
采购	-11.4976
寄	-11.4977
▁doğumlular	-11.4978
▁Environmental	-11.4979
▁governor	-11.498
▁Ort	-11.498
▁Се	-11.4982
含有	-11.4983
best	-11.4984
下的	-11.4985
▁chemical	-11.4986
Di	-11.4988
MAN	-11.499
private	-11.4991
利益	-11.4993
▁illness	-11.4994
▁boat	-11.4994
▁leg	-11.4996
ALL	-11.4998
▁само	-11.5001
▁entertainment	-11.5001
parse	-11.5002
▁jurisdiction	-11.5004
▁Engineering	-11.5005
▁permit	-11.5005
رم	-11.5007
▁efficient	-11.5008
▁Card	-11.5008
勤	-11.5008
fun	-11.5009
であり	-11.5009
적인	-11.5011
ania	-11.5011
等方面	-11.5012
▁Sel	-11.5012
▁width	-11.5014
▁performing	-11.5015
▁password	-11.5015
투	-11.5016
ode	-11.5018
▁grup	-11.5018
▁amounts	-11.502
▁със	-11.5021
ция	-11.5021
▁informed	-11.5023
▁noise	-11.5026
州市	-11.5026
▁distributed	-11.5026
窗	-11.5027
rik	-11.5028
▁goods	-11.5029
ios	-11.5029
▁perfectly	-11.503
편	-11.5032
▁consent	-11.5033
話	-11.5034
、「	-11.5036
统计	-11.5037
▁requirement	-11.5038
▁Ros	-11.504
尽快	-11.5042
続	-11.5042
金额	-11.5043
▁Ur	-11.5045
▁spin	-11.5046
zing	-11.5048
自我	-11.5048
润	-11.505
人数	-11.5052
ным	-11.5052
▁MS	-11.5054
Reg	-11.5055
▁Should	-11.5055
▁forma	-11.5057
场景	-11.5058
draw	-11.5058
ности	-11.5058
批	-11.5058
▁depth	-11.5058
▁fer	-11.5059
▁প্র	-11.506
uring	-11.5062
lag	-11.5068
钢刀	-11.5069
ungen	-11.5069
▁acid	-11.507
gir	-11.5071
▁landscape	-11.5073
地点	-11.5077
ptr	-11.5078
tom	-11.5079
垃圾	-11.508
ß	-11.508
▁Ми	-11.5081
그	-11.5082
▁Arch	-11.5084
网上	-11.5085
ender	-11.5087
▁feelings	-11.5087
废	-11.5087
▁folder	-11.5087
▁Pin	-11.5087
гу	-11.5087
will	-11.5088
宏	-11.5088
▁consequences	-11.5089
▁Manager	-11.509
▁mortgage	-11.5092
▁Peace	-11.5093
コン	-11.5094
总是	-11.5098
武汉	-11.51
▁electric	-11.5103
nun	-11.5105
tribu	-11.5108
的な	-11.5108
凯	-11.5108
谢	-11.5108
nos	-11.5109
▁upcoming	-11.5109
▁Cur	-11.5111
GM	-11.5114
▁"\[	-11.5114
不用	-11.5115
}(\	-11.5116
ظ	-11.5117
ペ	-11.5117
▁watched	-11.5118
代理	-11.5118
成都	-11.512
▁relation	-11.5121
▁parking	-11.5121
▁suddenly	-11.5122
근	-11.5122
▁Golden	-11.5123
域	-11.5126
dec	-11.5126
->"	-11.5127
install	-11.5128
rol	-11.5128
通信	-11.513
▁Email	-11.5131
uid	-11.5131
AV	-11.5132
的新	-11.5138
▁Gemeinde	-11.5139
VA	-11.514
week	-11.5141
公园	-11.5143
Device	-11.5143
打豆浆	-11.5144
▁increasingly	-11.5146
йн	-11.5146
伤害	-11.5147
▁Line	-11.515
某某	-11.5151
anni	-11.5153
lb	-11.5157
▁quiet	-11.5158
▁liked	-11.5158
▁Asian	-11.5159
▁Ку	-11.5159
排名	-11.516
zie	-11.5162
动作	-11.5164
干部	-11.5164
年龄	-11.5167
▁flash	-11.5168
▁الإ	-11.517
▁След	-11.5171
▁pointed	-11.5171
gor	-11.5172
vx	-11.5173
典	-11.5175
泥	-11.5175
olo	-11.5177
uro	-11.5181
eqref	-11.5181
有人	-11.5183
▁medium	-11.5183
▁Small	-11.5184
▁때	-11.5186
ых	-11.5186
▁불	-11.5188
仓	-11.5189
であった	-11.519
慢	-11.519
毕业	-11.5191
า	-11.5192
▁versions	-11.5193
▁humans	-11.5194
▁replaced	-11.5196
ís	-11.5196
ръ	-11.5196
▁Duke	-11.5197
ema	-11.5198
信号	-11.52
▁moments	-11.5201
çe	-11.5203
▁Syria	-11.5203
有很多	-11.5204
▁Prince	-11.5204
实行	-11.5209
▁България	-11.5213
▁Dallas	-11.5214
▁zur	-11.5215
آ	-11.5215
ийн	-11.5216
▁configuration	-11.5218
节目	-11.5218
열	-11.5219
▁drawn	-11.5219
▁Az	-11.522
▁gemeente	-11.522
▁voting	-11.522
ний	-11.5221
ların	-11.5223
стра	-11.5223
lh	-11.5224
▁mono	-11.5225
uv	-11.5225
種	-11.5226
Token	-11.5226
Java	-11.5228
screen	-11.5229
不需要	-11.5231
太阳	-11.5231
▁regularly	-11.5232
技	-11.5232
▁및	-11.5233
▁Ви	-11.5233
\"。	-11.5236
一名	-11.5238
终	-11.5239
Населённые	-11.5239
tmp	-11.524
▁offices	-11.524
uf	-11.5242
▁Я	-11.5242
▁argue	-11.5243
تو	-11.5243
闻	-11.5244
▁smile	-11.5246
会出现	-11.5246
▁Jahrhundert	-11.5246
管道	-11.5247
ザ	-11.5248
sent	-11.5252
▁Utah	-11.5252
▁fue	-11.5254
PER	-11.5256
ី	-11.5256
房屋	-11.5257
رب	-11.526
姓名	-11.526
▁Gre	-11.5261
inae	-11.5261
Su	-11.5262
▁Pop	-11.5263
Last	-11.5264
▁много	-11.5265
▁scheme	-11.5266
▁части	-11.5268
uint	-11.5269
ró	-11.527
▁Aus	-11.5272
▁pas	-11.5273
▁Forest	-11.5273
”“	-11.5275
▁Anthony	-11.5277
PI	-11.5281
郑	-11.5281
▁providers	-11.5283
سون	-11.5284
rica	-11.5284
▁Organization	-11.5288
▁shopping	-11.529
莱	-11.529
sco	-11.529
▁flu	-11.529
限制	-11.5293
本题	-11.5293
▁Number	-11.5294
鞋	-11.5296
不到	-11.5296
▁<<	-11.5299
itt	-11.5301
hm	-11.5301
被告人	-11.5302
ल्	-11.5303
tile	-11.5303
요	-11.5305
▁Assistant	-11.5308
▁stone	-11.5308
▁alive	-11.5311
iques	-11.5313
唯一	-11.5313
ines	-11.5315
▁hell	-11.5315
TM	-11.5317
愿	-11.5318
公民	-11.5319
事情	-11.5319
诚	-11.5319
▁accordance	-11.5319
▁expectations	-11.5321
통	-11.5322
Str	-11.5322
▁sequence	-11.5323
*)	-11.5325
»,	-11.5326
▁minister	-11.5327
tori	-11.5327
外观	-11.5328
▁LA	-11.5328
▁Harvard	-11.5333
的事情	-11.5337
▁Dun	-11.5338
product	-11.5339
common	-11.534
工厂	-11.534
▁heaven	-11.534
恋	-11.5341
tics	-11.5342
互动	-11.5344
敏	-11.5344
▁Queen	-11.5344
▁Fred	-11.5348
▁plain	-11.5348
client	-11.5348
記	-11.5349
▁containing	-11.535
▁ship	-11.535
इ	-11.5351
SN	-11.5351
infty	-11.5352
深度	-11.5352
▁cánh	-11.5352
▁Had	-11.5353
▁fly	-11.5354
Check	-11.5357
▁vom	-11.5357
unt	-11.5358
●	-11.5359
休	-11.5361
▁supports	-11.5364
▁(†	-11.5365
▁info	-11.5365
TX	-11.5365
都能	-11.5365
ван	-11.5365
ะ	-11.5366
访	-11.5368
▁opposed	-11.5368
nal	-11.5369
▁listening	-11.5371
▁tab	-11.5374
还要	-11.5374
matrix	-11.5375
高级	-11.5375
▁век	-11.5376
▁airport	-11.5377
分钟左右	-11.538
洛	-11.5381
▁Kara	-11.5384
」（	-11.5385
달	-11.5386
kor	-11.5387
▁Hor	-11.5388
wel	-11.5391
DNA	-11.5393
에게	-11.5394
甘	-11.5396
冠军	-11.5396
vet	-11.5397
根本	-11.5397
ore	-11.5399
▁updates	-11.54
rad	-11.5402
▁limits	-11.5402
高效	-11.5403
▁Championship	-11.5406
蒸	-11.5407
支撑	-11.5408
▁exit	-11.5408
▁retail	-11.5408
ones	-11.5408
ske	-11.541
每年	-11.541
财产	-11.5411
▁Anne	-11.5412
▁trading	-11.5412
高二	-11.5413
ically	-11.5413
▁visited	-11.5414
▁lunch	-11.5414
lov	-11.5416
方形	-11.5416
▁История	-11.5416
▁Brand	-11.5417
▁Having	-11.5419
固	-11.542
Number	-11.5421
▁shut	-11.5422
因材施	-11.5422
▁compliance	-11.5424
▁человек	-11.5424
Date	-11.5425
тор	-11.5425
腰	-11.5425
尘	-11.5425
反映	-11.5426
مثل	-11.5426
clo	-11.5427
▁Ash	-11.5429
扫	-11.543
▁Joan	-11.5431
dit	-11.5432
▁denied	-11.5433
een	-11.5436
钟	-11.5438
ья	-11.5438
▁philosophy	-11.5439
ている	-11.544
ENT	-11.544
▁Ol	-11.544
▁indicate	-11.5444
▁define	-11.5444
SV	-11.5444
oto	-11.5446
blog	-11.5446
HE	-11.5448
BI	-11.5448
采	-11.5449
▁aircraft	-11.5449
▁която	-11.545
change	-11.5455
فا	-11.5456
ထ	-11.5456
ages	-11.5456
▁marked	-11.5457
祖	-11.5457
cker	-11.546
▁milk	-11.546
现实	-11.5461
ā	-11.5463
tie	-11.5464
▁ticket	-11.5466
▁representative	-11.5467
wick	-11.5468
是因为	-11.5469
消毒	-11.5469
▁Mississippi	-11.5469
▁preparation	-11.547
▁employer	-11.5471
》，	-11.5472
人用	-11.5476
료	-11.5481
Ke	-11.5482
▁Winter	-11.5482
▁Permalink	-11.5482
▁brothers	-11.5483
戏	-11.5483
▁upgrade	-11.5484
▁Spi	-11.5484
无异味	-11.5484
ului	-11.5485
adi	-11.5486
全新	-11.5486
***	-11.5487
ello	-11.5487
▁كل	-11.549
winning	-11.5491
▁membership	-11.5494
▁voted	-11.5495
▁Var	-11.5496
▁impressive	-11.5496
/*	-11.5497
▁Season	-11.5497
रे	-11.5497
▁Sec	-11.5497
把握	-11.5499
售	-11.55
মা	-11.5501
▁efficiency	-11.5501
MT	-11.5502
观众	-11.5504
wide	-11.5505
este	-11.5506
force	-11.5506
要注意	-11.5507
quality	-11.5507
番	-11.5508
Cr	-11.551
▁opinions	-11.5511
رو	-11.5511
ologist	-11.5512
学科	-11.5512
稀	-11.5514
时刻	-11.5514
▁menjadi	-11.5517
▁interpretation	-11.5517
▁warrant	-11.5518
pop	-11.552
规律	-11.5521
必要	-11.5526
▁rooms	-11.5527
严格	-11.5528
的内容	-11.5529
▁Mus	-11.5529
▁Romney	-11.5529
▁delay	-11.553
裁定如下	-11.553
▁declared	-11.5531
▁ilk	-11.5532
▁healthcare	-11.5532
▁boost	-11.5534
▁MD	-11.5534
IX	-11.5535
都不	-11.5536
hop	-11.5536
▁Spain	-11.5537
베	-11.5538
观点	-11.554
▁enemy	-11.5541
nav	-11.5541
normal	-11.5541
▁powers	-11.5541
OUT	-11.5543
原则	-11.5544
▁Image	-11.5545
▁innovative	-11.5545
中间	-11.5548
▁fault	-11.555
};	-11.5551
一旦	-11.5551
分离	-11.5555
一款	-11.5555
▁achieved	-11.5557
▁составляет	-11.5558
刺激	-11.556
▁Brazil	-11.556
nel	-11.5561
水果	-11.5561
输	-11.5562
Book	-11.5562
▁{}	-11.5563
告	-11.5563
纹	-11.5564
其它	-11.5568
▁Toronto	-11.5568
▁categories	-11.5569
▁Cy	-11.5571
▁monitor	-11.5572
▁tied	-11.5572
WH	-11.5574
有什么	-11.5576
hit	-11.5576
规则	-11.5577
▁framework	-11.5578
▁Andre	-11.5579
との	-11.5579
很多人	-11.5579
OH	-11.5582
付款	-11.5583
▁Pri	-11.5584
主体	-11.5584
▁compensation	-11.5584
eira	-11.5585
ahan	-11.5586
▁cons	-11.5587
▁Reading	-11.5587
Krt	-11.5587
▁jail	-11.5587
年轻	-11.5589
RI	-11.559
发展的	-11.5591
▁confirm	-11.5592
还能	-11.5592
▁contribution	-11.5593
死亡	-11.5593
▁operate	-11.5598
made	-11.5598
pole	-11.5599
▁/>	-11.5599
博士	-11.56
▁variables	-11.5601
▁Mat	-11.5602
里的	-11.5604
ovi	-11.5605
miss	-11.5606
▁regardless	-11.5608
^\	-11.5608
这个是	-11.5608
▁Safety	-11.561
跨	-11.561
Just	-11.5612
▁conservative	-11.5612
▁aquest	-11.5612
▁governments	-11.5614
▁zone	-11.5614
فل	-11.5614
▁pulled	-11.5616
▁到手价	-11.5616
▁mixed	-11.5616
机关	-11.5618
had	-11.5618
刀座	-11.5621
','	-11.5622
多次	-11.5624
axi	-11.5624
黄金	-11.5628
thesis	-11.563
童	-11.563
▁werden	-11.563
转载	-11.5632
दा	-11.5632
▁tall	-11.5633
거	-11.5634
▁Stra	-11.5634
技巧	-11.5636
ヤ	-11.5638
push	-11.5638
リア	-11.5639
▁един	-11.564
▁estimates	-11.5643
▁pleasure	-11.5644
▁typical	-11.5644
▁introduce	-11.5644
ged	-11.5647
▁flag	-11.5648
态	-11.5648
▁районе	-11.5649
上涨	-11.5649
肯定	-11.5651
”、“	-11.5654
dam	-11.5655
ATION	-11.5656
ые	-11.5657
▁proven	-11.5658
ศ	-11.566
▁row	-11.5661
unda	-11.5661
智能变频	-11.5662
手段	-11.5662
的情况下	-11.5662
▁household	-11.5665
▁commune	-11.5665
上蒸下煮	-11.5667
para	-11.5667
很高兴为您服务	-11.5667
كو	-11.5667
▁assigned	-11.5668
sign	-11.5668
店铺	-11.5669
▁Coach	-11.567
轻巧便捷	-11.5673
嗯是的	-11.5673
build	-11.5673
▁Kingdom	-11.5674
新款小型	-11.5675
简化功能	-11.5676
÷	-11.5676
果汁杯	-11.5676
杯子往	-11.5676
您在本店购买的商品已	-11.5676
座往下	-11.5677
▁strongly	-11.5677
赤	-11.5677
▁Ana	-11.5677
连续快速双击两下开关启动	-11.5677
▁Мо	-11.5678
病毒	-11.5678
▁slowly	-11.568
ай	-11.568
류	-11.5681
哪些	-11.5681
商务	-11.5685
about	-11.5685
RC	-11.5686
▁Editor	-11.5691
危险	-11.5691
нес	-11.5694
▁cas	-11.5694
▁tomorrow	-11.5695
▁carefully	-11.5696
([	-11.5697
▁Ang	-11.5699
wall	-11.5699
ரி	-11.57
rier	-11.5701
▁copies	-11.5702
ET	-11.5703
▁Barack	-11.5703
ване	-11.5703
▁Sand	-11.5705
幅	-11.5705
▁comune	-11.5706
▁Stock	-11.5707
▁Mill	-11.5708
cil	-11.5708
农民	-11.5709
▁announcement	-11.5713
▁contemporary	-11.5715
▁heads	-11.5717
ural	-11.5718
▁Entertainment	-11.5719
重视	-11.572
▁faces	-11.5724
饮食	-11.5724
▁aside	-11.5725
▁Harris	-11.5727
▁improving	-11.5727
工作的	-11.5728
nov	-11.5729
적으로	-11.573
يل	-11.573
▁anniversary	-11.573
▁أيض	-11.5731
▁substantial	-11.5731
白色	-11.5733
呼吸	-11.5733
good	-11.5735
스트	-11.5735
▁extend	-11.5736
worth	-11.5736
inc	-11.5736
pie	-11.5737
佐	-11.5737
кри	-11.5737
義	-11.5739
mie	-11.574
خر	-11.574
科研	-11.5741
决	-11.5742
提供了	-11.5742
▁Modern	-11.5743
iff	-11.5743
闪	-11.5744
刊	-11.5744
RP	-11.5745
tx	-11.5747
▁Karl	-11.5747
pres	-11.5749
까지	-11.5749
tó	-11.5751
SET	-11.5751
▁museum	-11.5751
做出	-11.5755
ई	-11.5756
循环	-11.5756
्	-11.5757
▁externas	-11.5758
دار	-11.5758
FFFFFF	-11.5758
各个	-11.5759
▁أمريكيون	-11.5759
VL	-11.576
quit	-11.5761
Start	-11.5761
▁anymore	-11.5761
股票	-11.5764
▁Gallery	-11.5764
贝	-11.5764
▁Mag	-11.5764
▁enhance	-11.5764
包裹	-11.5766
解决方案	-11.5766
▁يقدر	-11.5767
nim	-11.5767
يز	-11.5769
▁Credit	-11.577
▁Antonio	-11.5772
▁burden	-11.5773
▁Tweet	-11.5775
各项	-11.5775
蛋白质	-11.5776
▁Mil	-11.5776
thing	-11.5776
▁NBA	-11.5777
▁Funeral	-11.5777
▁د	-11.5779
剑	-11.5781
NY	-11.5781
▁भारत	-11.5782
拼	-11.5782
▁graduated	-11.5783
▁Jane	-11.5784
прав	-11.5785
发表	-11.5785
सा	-11.5786
inch	-11.5786
▁Nothing	-11.5787
kit	-11.5787
▁attempts	-11.5788
▁reputation	-11.5788
ttle	-11.5789
Meta	-11.579
PD	-11.5791
ım	-11.5792
Target	-11.5792
▁appointment	-11.5793
▁cutting	-11.5795
▁diversity	-11.5795
\<^	-11.5796
▁Foreign	-11.5798
伯	-11.58
од	-11.5801
粘	-11.5801
وية	-11.5802
ائ	-11.5802
▁Plaats	-11.5803
rag	-11.5803
▁escape	-11.5804
▁Future	-11.5807
▁adopt	-11.5808
caption	-11.5808
▁returning	-11.5811
▁admit	-11.5811
Home	-11.5811
Sp	-11.5813
▁Multi	-11.5815
排除	-11.5815
授权	-11.5815
家具	-11.5816
▁Key	-11.5816
▁patent	-11.5816
▁rising	-11.5818
Car	-11.5822
pit	-11.5822
覆盖	-11.5823
▁remote	-11.5824
▁birthday	-11.5824
Der	-11.5825
られた	-11.5825
录	-11.5825
ာ	-11.5826
▁|}	-11.5826
▁quote	-11.5826
▁forest	-11.5827
தி	-11.5829
boy	-11.5831
April	-11.5834
ind	-11.5834
▁depend	-11.5836
▁க	-11.5837
▁scoring	-11.5837
▁भी	-11.5838
签	-11.584
乌	-11.5841
▁fabric	-11.5842
▁tonight	-11.5844
▁Kor	-11.5845
▁أي	-11.5845
SON	-11.5846
▁architecture	-11.5847
ln	-11.5848
女人	-11.5848
lus	-11.5848
▁defendant	-11.5849
队伍	-11.5849
▁Sol	-11.585
症状	-11.5853
ched	-11.5856
▁residence	-11.5856
▁acquisition	-11.5857
▁};	-11.5857
划	-11.5858
WHEN	-11.5858
▁newly	-11.5859
ott	-11.5859
two	-11.5859
▁Références	-11.5859
▁Atlantic	-11.5859
tation	-11.586
进口	-11.586
Output	-11.586
▁awesome	-11.5861
luk	-11.5861
يم	-11.5861
▁Archives	-11.5862
ரு	-11.5862
lines	-11.5862
▁einen	-11.5864
▁festival	-11.5865
▁plane	-11.5866
▁Décès	-11.5867
高温	-11.5867
DM	-11.5868
Call	-11.5869
▁championship	-11.587
π	-11.5872
佛	-11.5872
新型	-11.5873
entry	-11.5874
▁circuit	-11.5876
запад	-11.5878
▁Related	-11.588
▁explains	-11.588
lier	-11.5882
同学们	-11.5882
辉	-11.5883
▁instructions	-11.5883
уч	-11.5883
{{	-11.5883
学者	-11.5884
apply	-11.5884
▁dogs	-11.5886
▁layer	-11.5888
▁което	-11.5889
▁Wolf	-11.5891
▁Kir	-11.5893
▁covers	-11.5896
Sch	-11.5897
布局	-11.5897
墨	-11.5898
address	-11.5898
лю	-11.5899
turn	-11.5901
登录	-11.5901
▁celebrate	-11.5902
អ	-11.5902
试题分析	-11.5906
Gamma	-11.5907
他人	-11.5907
▁roles	-11.5907
证券	-11.5909
▁Pub	-11.591
▁encouraged	-11.5911
▁الوطني	-11.5912
▁petition	-11.5913
Ev	-11.5913
▁Trust	-11.5917
aa	-11.5918
Connect	-11.5918
刺	-11.5918
ox	-11.5918
cept	-11.5918
浅	-11.592
ギ	-11.592
Ti	-11.592
▁channel	-11.5922
▁Labor	-11.5922
tip	-11.5923
▁estimate	-11.5924
形象	-11.5926
▁branch	-11.5927
▁ruling	-11.5928
มี	-11.5929
退货	-11.593
▁calendar	-11.5931
可能会	-11.5931
тив	-11.5931
lect	-11.5932
▁proved	-11.5932
DF	-11.5932
Let	-11.5932
▁durant	-11.5934
▁Drug	-11.5935
gray	-11.5935
мир	-11.5936
领取	-11.5936
▁Fer	-11.5938
nak	-11.5939
том	-11.594
hold	-11.594
aç	-11.594
突	-11.5941
赞	-11.5941
生成	-11.5941
gli	-11.5941
ции	-11.5943
恶	-11.5945
旗舰店	-11.5945
レー	-11.5946
▁salt	-11.5946
empt	-11.5947
▁Vietnam	-11.5947
ヴィ	-11.5948
对象	-11.5948
▁Morgan	-11.5948
First	-11.5949
混合	-11.5949
▁Lang	-11.5949
▁ceremony	-11.5951
▁durch	-11.5952
▁Ди	-11.5954
煤	-11.5956
ப்	-11.5956
rb	-11.5957
精彩	-11.5959
uel	-11.5961
চ	-11.5961
▁Hy	-11.5961
▁cứng	-11.5961
ॉ	-11.5963
▁drawing	-11.5963
义务	-11.5963
Photo	-11.5964
▁laid	-11.5965
▁Kra	-11.5965
bla	-11.5965
▁ice	-11.5965
肥	-11.5967
▁decrease	-11.5967
съ	-11.5967
▁qu	-11.5971
俊	-11.5973
▁jury	-11.5974
ี	-11.5976
▁Member	-11.5977
▁انظر	-11.5978
愛	-11.5978
번	-11.5979
IE	-11.5981
▁bọ	-11.5981
▁initiative	-11.5981
▁ocean	-11.5982
▁Mount	-11.5982
浦	-11.5982
wr	-11.5982
ase	-11.5983
▁Brasil	-11.5985
▁atmosphere	-11.5987
▁genetic	-11.5988
▁hide	-11.5988
▁Nova	-11.5989
漆	-11.599
ா	-11.599
fill	-11.5991
▁accused	-11.5991
▁Din	-11.5991
ং	-11.5991
ана	-11.5992
▁cycle	-11.5992
сен	-11.5992
ជា	-11.5993
pra	-11.5994
车型	-11.5996
气候	-11.5996
plo	-11.5997
投资者	-11.5997
Art	-11.5999
都可以	-11.6001
都市	-11.6003
▁cook	-11.6006
▁قائمة	-11.6007
VM	-11.6007
▁mainly	-11.6008
▁Cos	-11.6009
VR	-11.601
Default	-11.601
▁Dream	-11.601
▁destination	-11.6011
ိ	-11.6011
▁monthly	-11.6012
整理	-11.6014
udi	-11.6015
▁Susan	-11.6016
▁Change	-11.6016
hang	-11.6016
尿	-11.6017
gio	-11.6017
shi	-11.6017
duc	-11.6018
▁Ant	-11.6019
ワ	-11.6019
▁requested	-11.602
溪	-11.602
▁scope	-11.6021
▁вид	-11.6021
缓	-11.6024
ген	-11.6026
liche	-11.6027
vie	-11.6027
Bu	-11.6029
wer	-11.6029
वि	-11.6029
▁Gor	-11.603
ए	-11.6033
রা	-11.6033
场所	-11.6034
Rujukan	-11.6035
▁área	-11.6035
▁IT	-11.6036
ators	-11.6037
禁	-11.6038
芳	-11.6038
经历	-11.6038
▁priority	-11.6038
pis	-11.6041
▁Albert	-11.6043
bir	-11.6046
▁Fame	-11.6047
▁Linux	-11.6047
MENT	-11.6048
bio	-11.6048
净	-11.6049
▁expertise	-11.6051
▁luck	-11.6051
▁mal	-11.6051
▁Software	-11.6052
▁hip	-11.6052
▁peak	-11.6052
▁Nelson	-11.6053
操作界面	-11.6055
▁govern	-11.6058
▁Kur	-11.606
mid	-11.6061
Config	-11.6062
▁constantly	-11.6062
▁southern	-11.6063
▁plate	-11.6064
격	-11.6065
▁presidential	-11.6065
▁Mis	-11.6067
民警	-11.607
含量	-11.6072
减震	-11.6072
▁mountain	-11.6073
ено	-11.6074
▁immigration	-11.6074
▁succeed	-11.6075
كر	-11.6076
▁objective	-11.6078
例如	-11.6079
很好	-11.6079
▁dates	-11.608
在于	-11.608
▁weak	-11.6081
gus	-11.6081
別	-11.6083
▁addressed	-11.6083
▁Sz	-11.6083
▁جامعة	-11.6083
ô	-11.6085
▁Zo	-11.6085
▁Ag	-11.6086
нь	-11.6088
iso	-11.6089
▁kecamatan	-11.609
▁attached	-11.6091
▁Word	-11.6091
怪	-11.6093
洲	-11.6093
wh	-11.6095
▁кон	-11.6095
依然	-11.6097
سياسي	-11.6098
▁Austin	-11.6098
出口	-11.61
▁Ty	-11.61
▁Кон	-11.6101
▁Plant	-11.6102
▁Visit	-11.6102
ux	-11.6104
▁PC	-11.6105
宮	-11.6108
回收	-11.6109
纪	-11.6109
▁battery	-11.6111
Print	-11.6112
术	-11.6113
▁guidance	-11.6114
补充	-11.6115
▁guests	-11.6116
来到	-11.6116
证书	-11.6116
职工	-11.6117
ime	-11.6118
▁hardware	-11.612
obj	-11.612
lığı	-11.6122
尖	-11.6122
ulation	-11.6123
▁crazy	-11.6123
▁nu	-11.6123
Open	-11.6126
▁suppose	-11.6126
足球	-11.6127
aut	-11.6127
▁Travel	-11.6128
ौ	-11.613
१	-11.613
▁ق	-11.6132
吸引	-11.6133
▁日本の	-11.6137
▁né	-11.6137
ーン	-11.6138
選	-11.6141
辅食	-11.6142
▁danger	-11.6143
valid	-11.6144
▁penalty	-11.6144
osis	-11.6145
rá	-11.6146
Omega	-11.6147
炉	-11.6147
▁Да	-11.6147
▁communicate	-11.615
到底	-11.615
▁finds	-11.615
的好	-11.6154
▁강	-11.6156
ដ	-11.6156
▁structures	-11.6156
ional	-11.6157
小程序	-11.6157
風	-11.6158
زي	-11.616
bd	-11.616
struct	-11.6161
▁Sto	-11.6161
部署	-11.6162
而言	-11.6162
▁punt	-11.6163
▁Model	-11.6164
vas	-11.6164
ography	-11.6165
급	-11.6166
flu	-11.6167
RB	-11.6168
▁browser	-11.6168
達	-11.617
漏	-11.617
tv	-11.6171
▁Dol	-11.6172
)،	-11.6172
以为	-11.6172
Mi	-11.6172
យ	-11.6174
▁Hart	-11.6175
▁Kal	-11.6177
给予	-11.6177
▁Cook	-11.6179
▁Math	-11.618
▁icon	-11.618
tch	-11.6181
★	-11.6182
▁smooth	-11.6186
▁Store	-11.6187
join	-11.6187
▁BBC	-11.6189
ass	-11.619
▁recommendations	-11.619
加大	-11.6192
▁worship	-11.6193
display	-11.6193
▁universities	-11.6194
coming	-11.6194
atic	-11.6195
ート	-11.6197
附	-11.62
南京	-11.6201
出行	-11.6201
▁elections	-11.6201
etta	-11.6203
ск	-11.6203
本身	-11.6204
▁género	-11.6204
project	-11.6206
سم	-11.6206
▁سي	-11.6207
▁Ye	-11.6207
▁Associated	-11.6207
▁той	-11.6208
ុ	-11.6209
₁	-11.621
tı	-11.6211
▁programming	-11.6215
▁OS	-11.6215
▁carrying	-11.6215
男子	-11.6215
tern	-11.6215
▁Corp	-11.6217
▁Early	-11.6218
кра	-11.622
uy	-11.622
▁IS	-11.6221
▁mô	-11.6221
▁celebration	-11.6222
▁authorized	-11.6224
▁Would	-11.6225
▁İ	-11.6225
▁ET	-11.6225
dre	-11.6226
makers	-11.6228
Integer	-11.6228
▁joining	-11.6228
neg	-11.6229
▁Training	-11.623
▁programme	-11.6232
жен	-11.6233
随后	-11.6236
特征	-11.6237
▁crash	-11.6238
وك	-11.6239
▁votes	-11.6241
▁Sky	-11.6241
syn	-11.6241
ู	-11.6241
予	-11.6241
XX	-11.6242
pho	-11.6243
simp	-11.6244
▁Walker	-11.6244
。​​​	-11.6244
season	-11.6245
法院	-11.6245
▁Luc	-11.6246
柱	-11.6248
郎	-11.6248
페	-11.6248
▁Kong	-11.6251
đ	-11.6252
很大	-11.6252
大火力	-11.6253
ús	-11.6253
む	-11.6254
وف	-11.6255
pac	-11.6255
▁violation	-11.6256
rim	-11.6257
▁cup	-11.6259
छ	-11.6259
▁Hot	-11.626
▁potentially	-11.6261
▁وقد	-11.6261
▁모	-11.6261
▁presents	-11.6262
▁Chairman	-11.6263
tors	-11.6265
▁Systems	-11.6266
狗	-11.6267
▁Sim	-11.6267
Button	-11.6267
iller	-11.6268
iness	-11.6269
指定	-11.6269
▁smoke	-11.6271
〜	-11.6271
▁shots	-11.6271
če	-11.6271
▁Oscar	-11.6273
sty	-11.6274
OT	-11.6274
办公室	-11.6274
Detail	-11.6276
渡	-11.6277
館	-11.6277
▁wearing	-11.6277
汽	-11.6278
▁forever	-11.6279
皇	-11.6279
aving	-11.6279
ential	-11.628
挑剔口味	-11.6281
terior	-11.6281
জ	-11.6281
智能按键	-11.6282
机身金属	-11.6282
环绕加热	-11.6282
imi	-11.6282
不溢锅	-11.6282
持续沸腾	-11.6282
全家人一起享用	-11.6283
▁counsel	-11.6283
င်	-11.6283
小时随时预约	-11.6283
搭配多项	-11.6283
简洁机身	-11.6283
蒸汽焖	-11.6283
拉丝纹理设计	-11.6283
智能饭煲	-11.6283
米饭醇香	-11.6283
▁Gal	-11.6283
灰	-11.6284
直接点击最后一个星星就可以了亲	-11.6284
联赛	-11.6285
▁অ	-11.6286
▁Cette	-11.6287
有一个	-11.6288
不行	-11.6289
几乎	-11.6289
▁bridge	-11.629
理由	-11.6291
три	-11.6291
▁إحدى	-11.6292
空调	-11.6297
ケ	-11.6299
▁differ	-11.63
Her	-11.63
▁memiliki	-11.6301
▁exp	-11.6302
▁Bas	-11.6304
枝	-11.6304
inner	-11.6305
▁technique	-11.6305
များ	-11.6306
meta	-11.6307
▁endémique	-11.6307
▁Ever	-11.6308
睡	-11.6308
ock	-11.6308
▁crack	-11.6309
sville	-11.6311
ude	-11.6312
fix	-11.6312
产品的	-11.6312
到位	-11.6314
▁Silver	-11.6314
▁Външни	-11.6315
蒙	-11.6316
借款	-11.6317
可以在	-11.6318
▁Pope	-11.6318
ONE	-11.6319
난	-11.6321
कर	-11.6322
男人	-11.6322
▁Garden	-11.6323
▁diseases	-11.6323
тан	-11.6323
cond	-11.6324
▁fantastic	-11.6324
سن	-11.6325
▁meat	-11.6325
False	-11.6325
点评	-11.6325
True	-11.6325
▁introduction	-11.6326
▁involves	-11.6326
▁laptop	-11.6327
▁Need	-11.6328
▁prime	-11.6328
胸	-11.6328
ologia	-11.6328
LO	-11.6329
切实	-11.633
▁Without	-11.633
}}{	-11.633
lerin	-11.6331
▁mill	-11.6332
播	-11.6332
▁phrase	-11.6334
简介	-11.6334
勒	-11.6335
ait	-11.6335
▁indicated	-11.6338
вой	-11.6339
▁prima	-11.634
control	-11.6341
${	-11.6342
▁препратки	-11.6343
语文	-11.6344
rp	-11.6345
的关系	-11.6345
団	-11.6347
Fe	-11.6347
▁dynamic	-11.6348
将会	-11.6348
能量	-11.635
▁Mah	-11.6351
▁Mayor	-11.6351
搞	-11.6351
▁Gro	-11.6352
▁바	-11.6354
への	-11.6355
となる	-11.6355
▁injured	-11.6356
▁Olympic	-11.6356
▁iOS	-11.6357
书记员	-11.6357
។	-11.6358
Col	-11.636
)#	-11.6361
▁Ul	-11.6362
強	-11.6362
kr	-11.6363
宣布	-11.6363
她的	-11.6364
SK	-11.6364
让我们	-11.6365
邦	-11.6369
办公	-11.6371
UC	-11.6372
liği	-11.6372
▁occurs	-11.6372
▁Learn	-11.6372
供应	-11.6373
▁challenging	-11.6376
질	-11.6376
▁Sho	-11.6377
铁路	-11.6377
acy	-11.6378
▁Tea	-11.638
▁friendly	-11.6381
▁symbol	-11.6381
▁dear	-11.6383
展开	-11.6384
▁gotten	-11.6385
▁admission	-11.6385
HA	-11.6387
request	-11.6388
▁الك	-11.6389
▁prayer	-11.639
姆	-11.6391
Options	-11.6392
TP	-11.6393
▁Bruce	-11.6394
▁corresponding	-11.6394
▁somehow	-11.6394
hall	-11.6394
INS	-11.6396
▁Alan	-11.6397
ас	-11.6397
孩子们	-11.6397
▁adapt	-11.6397
্যা	-11.6399
esa	-11.64
вар	-11.64
杂	-11.64
tron	-11.6402
▁###	-11.6403
▁Return	-11.6404
▁pace	-11.6406
十二	-11.6407
朗	-11.6407
форм	-11.6408
itis	-11.6409
総	-11.6409
fil	-11.6409
}[	-11.6409
▁س	-11.6409
▁bid	-11.6411
ダー	-11.6415
了一个	-11.6415
্	-11.6418
故障	-11.642
▁lady	-11.6421
context	-11.6421
▁plaats	-11.6423
asa	-11.6424
にも	-11.6424
▁hall	-11.6424
▁български	-11.6425
公众号	-11.6425
猫	-11.6426
蔬菜	-11.6426
▁colleagues	-11.6426
斑	-11.6429
Def	-11.6431
tter	-11.6432
曾经	-11.6432
review	-11.6433
▁Mission	-11.6434
リン	-11.6434
▁coal	-11.6437
ெ	-11.6439
杆	-11.6442
▁Jazz	-11.6442
集体	-11.6442
▁silver	-11.6443
不再	-11.6444
▁acquired	-11.6444
▁Following	-11.6447
▁alleged	-11.6448
dro	-11.6448
피	-11.6449
kov	-11.6451
track	-11.6452
停止	-11.6453
हा	-11.6454
▁colors	-11.6456
▁subjects	-11.6456
кон	-11.6457
高端	-11.6457
▁Prior	-11.6459
来了	-11.6459
▁bike	-11.646
cover	-11.646
▁statistics	-11.646
▁Gary	-11.6461
Pre	-11.6461
ын	-11.6462
ут	-11.6463
対	-11.6463
▁occasion	-11.6463
сон	-11.6464
ு	-11.6464
fan	-11.6464
Block	-11.6464
▁미국의	-11.6465
▁Guy	-11.6467
▁wire	-11.6467
吹	-11.6467
ibility	-11.647
▁beach	-11.647
▁내	-11.647
▁representation	-11.6471
▁contracts	-11.6471
充满	-11.6472
▁agenda	-11.6473
地面	-11.6474
ographic	-11.6474
▁Unit	-11.6474
etic	-11.6476
配套	-11.6476
▁entity	-11.6477
оп	-11.6479
▁Bun	-11.6479
ete	-11.6479
aran	-11.6479
lak	-11.648
▁Census	-11.6481
サン	-11.6481
▁interior	-11.6485
▁tested	-11.6485
神经	-11.6485
▁Assembly	-11.6485
params	-11.6486
▁thin	-11.6486
ад	-11.6487
▁causing	-11.6488
Fa	-11.6488
kra	-11.6488
▁الب	-11.6489
▁refused	-11.649
家人	-11.6491
pid	-11.6493
▁Min	-11.6494
சி	-11.6494
近年来	-11.6495
▁pounds	-11.6496
夹	-11.6497
Ru	-11.6497
nit	-11.6498
些	-11.65
有所	-11.6501
填	-11.6502
▁journal	-11.6503
损失	-11.6504
▁إي	-11.6505
▁guarantee	-11.6505
ridge	-11.6506
造型	-11.6506
▁normally	-11.6506
进步	-11.6506
button	-11.6506
プロ	-11.6506
stop	-11.6507
▁Filed	-11.6508
FI	-11.6508
▁Computer	-11.6509
▁Fla	-11.6509
▁सं	-11.6509
iel	-11.6509
▁gap	-11.6511
there	-11.6512
▁regulation	-11.6513
yap	-11.6513
▁وهو	-11.6513
▁pursue	-11.6516
▁Cleveland	-11.6516
ua	-11.6518
ered	-11.6519
▁centers	-11.6519
助力	-11.6521
itude	-11.6522
▁Turn	-11.6522
كم	-11.6523
چ	-11.6524
Space	-11.6524
锦	-11.6525
粉丝	-11.6526
▁Motor	-11.6528
온	-11.6529
▁describes	-11.6529
审核	-11.6529
yy	-11.6532
tric	-11.6533
โ	-11.6533
反馈	-11.6533
账	-11.6534
▁Figure	-11.6535
▁warning	-11.6536
▁keeps	-11.6536
Pe	-11.6539
▁Ц	-11.654
仪器	-11.654
▁Malaysia	-11.6541
kas	-11.6542
▁apps	-11.6542
buffer	-11.6544
工资	-11.6544
型号	-11.6545
iza	-11.6545
▁fil	-11.6545
▁vector	-11.6547
▁faced	-11.6547
漫	-11.6547
Mr	-11.6548
▁Mother	-11.6548
▁examination	-11.6549
四个	-11.655
BL	-11.6551
伝	-11.6553
精心打造	-11.6553
After	-11.6553
Ч	-11.6553
ota	-11.6555
定期	-11.6555
评论	-11.6558
挺	-11.6558
强度	-11.6559
kap	-11.6559
▁kernel	-11.656
▁violent	-11.6561
部位	-11.6561
矛盾	-11.6561
二十	-11.6561
RM	-11.6562
▁greatly	-11.6562
▁posting	-11.6562
▁Brit	-11.6563
▁Ки	-11.6563
Ga	-11.6565
▁الش	-11.6566
edge	-11.6567
遇	-11.6567
〉	-11.6568
创建	-11.6569
使得	-11.6569
تون	-11.657
▁mais	-11.6571
ோ	-11.6572
kol	-11.6573
▁profession	-11.6576
粒	-11.6577
▁discount	-11.6579
不好	-11.6579
▁essentially	-11.6581
না	-11.6581
▁Jacob	-11.6582
商家	-11.6583
▁einem	-11.6584
也能	-11.6585
tha	-11.6585
▁unusual	-11.6586
▁Lar	-11.6587
▁replacement	-11.6587
rock	-11.6588
围绕	-11.6588
ency	-11.6588
tek	-11.6589
附近	-11.6589
looking	-11.659
▁backup	-11.659
addr	-11.659
)^	-11.659
▁visible	-11.659
FL	-11.6591
▁accessible	-11.6593
▁curve	-11.6593
▁AS	-11.6595
▁march	-11.6596
▁childhood	-11.6596
란	-11.6596
焦	-11.6598
▁ranked	-11.6598
▁relating	-11.66
তা	-11.6601
جا	-11.6603
▁ear	-11.6604
▁Fil	-11.6604
cara	-11.6605
▁iz	-11.6605
一个人	-11.6605
▁Hong	-11.6606
cid	-11.6608
bos	-11.6608
تن	-11.6609
华为	-11.661
Tra	-11.6611
гар	-11.6612
وز	-11.6612
▁Events	-11.6614
rec	-11.6616
び	-11.6617
当中	-11.6618
iano	-11.6618
Function	-11.6622
▁Lei	-11.6622
ssen	-11.6623
ских	-11.6623
▁Protection	-11.6625
肺	-11.6626
干燥	-11.6627
▁Orleans	-11.6627
دة	-11.6628
酷	-11.663
▁losses	-11.663
▁Being	-11.663
▁champion	-11.6631
▁salah	-11.6633
▁founder	-11.6633
▁blame	-11.6633
基于	-11.6636
Match	-11.6636
公益	-11.6637
▁featuring	-11.6638
清楚	-11.6639
▁Drive	-11.6639
始终	-11.664
▁ages	-11.6641
第五	-11.6643
賞	-11.6644
▁truck	-11.6644
BU	-11.6645
突然	-11.6645
ती	-11.6646
▁stable	-11.6646
▁consists	-11.6647
▁deeply	-11.6647
cas	-11.6647
讨论	-11.6647
敬	-11.6648
讯	-11.6649
〈	-11.665
град	-11.6651
背景	-11.6653
广场	-11.6655
练	-11.6657
地域	-11.6661
咨询客服	-11.6661
रि	-11.6661
por	-11.6662
▁Create	-11.6662
Hi	-11.6662
亡	-11.6663
顾	-11.6663
jer	-11.6664
фер	-11.6664
▁알	-11.6665
上升	-11.6666
旅	-11.6666
при	-11.6666
吊	-11.6667
eM	-11.6671
的要求	-11.6672
▁criteria	-11.6673
▁painting	-11.6673
须	-11.6674
SR	-11.6675
uc	-11.6676
癌	-11.6677
ิ	-11.6677
LL	-11.6678
▁shell	-11.6679
own	-11.668
بة	-11.6681
لت	-11.6683
▁constitutional	-11.6684
nc	-11.6684
Position	-11.6686
▁moves	-11.6687
▁Wed	-11.6688
传递	-11.669
bv	-11.6693
▁interpret	-11.6695
▁Legal	-11.6695
▁premier	-11.6696
▁distinct	-11.6698
检验	-11.6699
▁Orthodox	-11.67
টি	-11.67
▁sorti	-11.6701
▁Posts	-11.6701
фе	-11.6701
相当	-11.6703
ρ	-11.6704
çi	-11.6704
杜	-11.6705
▁Pas	-11.6706
fish	-11.6706
▁BE	-11.6708
煲汤	-11.6709
▁giant	-11.671
丝滑	-11.671
中学	-11.671
▁Jul	-11.6711
▁tight	-11.6713
▁Commissioner	-11.6713
kim	-11.6715
BD	-11.6715
▁sections	-11.6715
▁trained	-11.6717
BP	-11.6718
using	-11.6718
刻度线	-11.6719
▁requests	-11.672
▁Ло	-11.672
鼻	-11.6721
▁Know	-11.6721
名单	-11.6722
▁sending	-11.6723
▁AT	-11.6725
▁fewer	-11.6725
▁tap	-11.6726
▁duties	-11.6726
{$	-11.6726
nden	-11.6729
▁soil	-11.6729
scope	-11.6732
▁composition	-11.6732
▁impression	-11.6732
磨粉	-11.6738
その後	-11.6738
福利	-11.6739
▁bulunan	-11.674
▁collective	-11.674
的设计	-11.674
细节	-11.6742
▁Survey	-11.6744
labor	-11.6744
Eq	-11.6745
▁Lawrence	-11.6746
Content	-11.6746
vic	-11.6746
合成	-11.6747
Local	-11.6747
▁لم	-11.6748
acc	-11.6748
▁dollar	-11.6748
plus	-11.675
▁medal	-11.6751
▁witness	-11.6752
精准	-11.6753
▁alt	-11.6754
kla	-11.6755
▁profit	-11.6755
سل	-11.6755
tory	-11.6756
▁ré	-11.6756
▁outcome	-11.6756
▁située	-11.6758
▁incredible	-11.6758
▁Culture	-11.6758
бе	-11.6759
}},	-11.676
import	-11.6761
▁lift	-11.6763
▁Five	-11.6764
white	-11.6764
取消	-11.6764
▁poll	-11.6765
▁Edition	-11.6766
▁walls	-11.6766
يف	-11.6766
github	-11.6768
ï	-11.6768
的一种	-11.6769
Num	-11.6769
ひ	-11.6769
أك	-11.6772
▁Soviet	-11.6772
▁formation	-11.6772
▁З	-11.6773
hung	-11.6773
fel	-11.6774
attribute	-11.6774
▁gained	-11.6774
シュ	-11.6774
▁NASA	-11.6774
战争	-11.6775
▁absolute	-11.6776
▁mistake	-11.6776
误	-11.6779
سی	-11.6779
的特点	-11.6782
本站	-11.6783
gn	-11.6784
▁daha	-11.6787
▁Farm	-11.6788
▁също	-11.6788
▁skill	-11.6788
lf	-11.6789
рус	-11.6789
尽量	-11.6789
植	-11.6791
Er	-11.6791
とは	-11.6791
瓜	-11.6792
▁Given	-11.6794
prec	-11.6794
Prop	-11.6795
area	-11.6795
seg	-11.6797
途	-11.6797
▁approaches	-11.68
comment	-11.68
Equal	-11.6801
▁Th	-11.6802
▁equally	-11.6803
admin	-11.6803
дан	-11.6804
▁Born	-11.6804
▁Creek	-11.6805
艾	-11.6806
▁Andy	-11.6806
علم	-11.6806
Range	-11.6808
Mode	-11.6808
▁пере	-11.6809
iye	-11.6809
▁attitude	-11.681
nja	-11.6811
在一起	-11.6812
▁producer	-11.6812
摩	-11.6812
▁savings	-11.6814
▁Baltimore	-11.6814
▁Keep	-11.6814
▁crimes	-11.6817
▁disorder	-11.6818
▁examine	-11.6818
тен	-11.6819
эл	-11.6819
dik	-11.682
▁hang	-11.682
्य	-11.6823
声音	-11.6823
每一个	-11.6823
▁iPad	-11.6823
▁Ocean	-11.6825
▁quan	-11.6825
▁radical	-11.6826
alo	-11.6826
▁Rod	-11.6827
NN	-11.6828
燃烧	-11.6828
Frame	-11.6828
后期	-11.6828
craft	-11.6829
ское	-11.6829
they	-11.6829
▁firms	-11.6829
rah	-11.683
anı	-11.683
▁Cost	-11.683
哟	-11.6833
▁Cons	-11.6834
RN	-11.6834
协调	-11.6837
▁Cra	-11.6837
論	-11.6838
▁região	-11.684
America	-11.684
▁exhibit	-11.684
▁Professional	-11.6841
haus	-11.6841
アメリカ	-11.6842
zan	-11.6843
驾	-11.6844
应急	-11.6844
▁Nat	-11.6845
DL	-11.6845
基层	-11.6846
▁franchise	-11.6847
▁kon	-11.6848
seq	-11.6848
vat	-11.6848
tags	-11.6849
▁forum	-11.685
Si	-11.685
▁blocks	-11.6851
▁द	-11.6851
▁venture	-11.6851
巴氏杀菌	-11.6853
▁Dead	-11.6854
horn	-11.6854
▁다른	-11.6855
徒	-11.6855
fest	-11.6856
лия	-11.6859
立享	-11.6861
▁Stadium	-11.6861
ready	-11.6864
attr	-11.6864
mek	-11.6864
▁protein	-11.6865
bis	-11.6866
▁cheap	-11.6866
亚洲	-11.6867
▁세	-11.6867
split	-11.6868
क्ष	-11.6868
REDIRECTION	-11.6868
۲	-11.6868
予以	-11.6868
ското	-11.6869
▁Gil	-11.6871
▁bunch	-11.6872
ек	-11.6872
▁transaction	-11.6872
Min	-11.6874
￣	-11.6875
LC	-11.6875
▁elsewhere	-11.6876
ax	-11.6877
dl	-11.6878
пре	-11.6878
▁controlled	-11.6879
的需求	-11.688
▁survive	-11.6881
INT	-11.6881
▁Ly	-11.6882
င်း	-11.6886
chin	-11.6886
▁absence	-11.6887
OD	-11.6887
加速	-11.6887
Stand	-11.6887
共享	-11.6889
حل	-11.6889
جي	-11.689
▁espécie	-11.689
家里	-11.689
▁Images	-11.6891
▁Register	-11.6891
▁tips	-11.6892
こと	-11.6893
ved	-11.6894
驻	-11.6894
황	-11.6898
▁exclusive	-11.6899
uta	-11.69
tique	-11.69
▁kadar	-11.6901
▁Say	-11.6901
이며	-11.6902
扎	-11.6902
▁fraud	-11.6902
▁Би	-11.6903
胃	-11.6903
▁disagree	-11.6905
break	-11.6905
▁Н	-11.6905
未回复	-11.6907
▁cop	-11.6908
板块	-11.6908
су	-11.6908
邀请	-11.6909
裂	-11.6909
тин	-11.6911
column	-11.6911
老板	-11.6911
세기	-11.6911
▁monitoring	-11.6913
▁dat	-11.6914
辛苦您	-11.6914
个工作日到账	-11.6915
؛	-11.6916
▁Military	-11.6916
贴心功能	-11.6917
▁defend	-11.6918
증	-11.6919
抑菌率	-11.6919
bash	-11.6919
方便拍	-11.6919
egg	-11.6919
▁entering	-11.692
▁plastic	-11.692
chant	-11.6922
مار	-11.6922
欠	-11.6923
ost	-11.6923
▁((	-11.6924
نة	-11.6926
空载转速	-11.6926
கு	-11.6926
▁bagian	-11.6926
╭～	-11.6927
破壁豆浆机	-11.6927
▁أس	-11.6927
款惊喜价	-11.6928
高速搅打	-11.6928
满你所需	-11.6928
细腻直	-11.6928
原浆口感	-11.6928
无论	-11.6929
怕变质	-11.6929
轻音低	-11.6929
新款轻音	-11.6929
都在	-11.6929
分钟打好	-11.6929
动更安静	-11.6929
叶立体	-11.6929
可变容量	-11.6929
美味不用久等	-11.6929
休息哦	-11.6929
￣）	-11.6932
▁reducing	-11.6933
参考下哦	-11.6933
த்த	-11.6934
▁falling	-11.6934
防护	-11.6934
работ	-11.6935
▁Roger	-11.6936
更换	-11.6937
▁feedback	-11.6937
拍摄	-11.6937
▁loud	-11.6939
炒	-11.694
▁Standard	-11.694
阻	-11.6942
▁Russell	-11.6942
▁Ap	-11.6943
消化	-11.6944
▁Third	-11.6944
▁piano	-11.6944
▁signature	-11.6944
德国	-11.6945
▁Mos	-11.6946
▁fet	-11.6946
人群	-11.6946
Action	-11.6946
tif	-11.6947
▁*)	-11.6948
tire	-11.6949
公司的	-11.6949
arr	-11.695
ended	-11.6953
杭州	-11.6953
质保	-11.6954
▁somebody	-11.6955
double	-11.6955
欲	-11.6956
预约不	-11.6956
▁Start	-11.6957
▁🌟	-11.6957
▁blow	-11.6958
{}	-11.6959
▁Doctor	-11.6961
▁Br	-11.6963
have	-11.6963
▁Square	-11.6963
kö	-11.6965
▁maintained	-11.6965
收集	-11.6965
棒	-11.6966
▁supplies	-11.6966
тар	-11.6967
March	-11.6967
zone	-11.6968
景区	-11.6968
择	-11.697
▁Oxford	-11.697
▁Во	-11.6971
函数	-11.6971
▁미	-11.6972
owned	-11.6972
▁rational	-11.6973
肝	-11.6974
ёр	-11.6975
bury	-11.6976
仍然	-11.6976
▁Six	-11.6976
=>	-11.6976
▁Connecticut	-11.698
▁titles	-11.6981
▁nearby	-11.6982
▁mai	-11.6982
庭	-11.6985
音楽	-11.6985
范	-11.6986
VE	-11.6987
رة	-11.6987
▁passes	-11.6987
趋势	-11.6988
lev	-11.6988
bas	-11.699
TI	-11.6992
safe	-11.6993
ホ	-11.6994
Ju	-11.6994
iger	-11.6995
▁arasında	-11.6996
▁이후	-11.6997
绝对	-11.6997
▁sessions	-11.6997
som	-11.7
▁Insurance	-11.7001
▁Arm	-11.7002
mil	-11.7003
tras	-11.7003
的关键	-11.7003
ति	-11.7006
▁chairman	-11.7007
▁Qua	-11.7008
周边	-11.7008
▁Kat	-11.7008
츠	-11.7009
ده	-11.7009
▁steel	-11.7012
指标	-11.7012
▁chart	-11.7013
版本	-11.7013
lea	-11.7014
购物	-11.7014
▁loop	-11.7014
青春	-11.7014
txt	-11.7014
▁hire	-11.7018
▁paint	-11.7021
电源	-11.7021
照片	-11.7021
▁downtown	-11.7021
▁bug	-11.7022
▁Islamic	-11.7023
幼儿园	-11.7023
▁Plus	-11.7024
▁liquid	-11.7024
似	-11.7024
▁sous	-11.7026
呈	-11.7026
EG	-11.7027
餐饮	-11.7028
▁patterns	-11.7028
▁Wil	-11.7028
SQL	-11.7028
▁말	-11.7033
碎	-11.7033
▁stretch	-11.7035
▁drinking	-11.7035
▁proc	-11.7036
摆	-11.7037
▁affairs	-11.7038
▁veteran	-11.7038
чин	-11.7038
▁த	-11.7038
鸟	-11.7038
奶	-11.7038
包含	-11.7039
Some	-11.7041
$，$	-11.7043
ជ	-11.7043
▁Freedom	-11.7044
本人	-11.7046
bau	-11.7047
HI	-11.7047
rà	-11.7047
▁Marc	-11.7049
feld	-11.7049
iler	-11.7051
▁сред	-11.7052
海洋	-11.7053
صف	-11.7054
▁terrible	-11.7054
燃	-11.7055
▁"==	-11.7055
▁Reserve	-11.7055
▁confident	-11.7055
▁contributed	-11.7057
▁Monte	-11.7057
ieve	-11.7058
▁performances	-11.7059
iga	-11.706
▁adds	-11.706
▁wake	-11.7061
▁Stat	-11.7064
▁raising	-11.7065
▁Juan	-11.7066
▁hidden	-11.7067
equ	-11.7067
▁breath	-11.7068
海外	-11.7069
пар	-11.7069
过滤	-11.7071
▁comme	-11.7071
研	-11.7073
桃	-11.7073
促	-11.7074
▁ABC	-11.7075
▁foods	-11.7075
柳	-11.7075
素质	-11.7076
▁Stadt	-11.7076
extbf	-11.7076
▁athletic	-11.7079
▁bag	-11.7079
▁Agreement	-11.7081
got	-11.7082
▁veya	-11.7083
eck	-11.7083
▁keyboard	-11.7084
稿	-11.7084
▁False	-11.7084
shed	-11.7085
▁notion	-11.7085
幸	-11.7086
MW	-11.7086
eval	-11.7087
橋	-11.7089
首次	-11.709
▁Си	-11.709
sort	-11.7091
删除	-11.7091
并不是	-11.7094
▁Prize	-11.7095
rows	-11.7096
▁determination	-11.7096
▁Angel	-11.7096
wise	-11.7098
▁poet	-11.7098
▁الرسمي	-11.7099
ault	-11.7099
▁temporary	-11.71
wen	-11.7101
頭	-11.7101
▁Members	-11.7101
重量	-11.7101
▁replied	-11.7102
ព	-11.7104
▁Exchange	-11.7104
有点	-11.7104
▁Baptist	-11.7104
atory	-11.7106
tw	-11.7106
▁NGC	-11.7106
俄罗斯	-11.7106
▁Ltd	-11.7109
উ	-11.7109
各位	-11.7109
▁sustainable	-11.7109
▁establishment	-11.711
表明	-11.711
ней	-11.7112
▁fiction	-11.7112
惊	-11.7112
▁apartment	-11.7113
mektedir	-11.7115
察	-11.7115
debug	-11.7115
used	-11.7116
sup	-11.7116
▁यह	-11.7118
哪个	-11.7119
▁%%	-11.712
祥	-11.712
岸	-11.7121
▁opera	-11.7123
MD	-11.7125
tube	-11.7126
▁yield	-11.7126
原料	-11.7127
▁float	-11.7127
background	-11.713
Post	-11.713
▁Hel	-11.7131
▁Circuit	-11.7131
▁ந	-11.7132
sti	-11.7133
令人	-11.7134
▁northern	-11.7137
▁pod	-11.7138
lude	-11.7138
▁closing	-11.7139
赢	-11.714
▁consumption	-11.7142
ndo	-11.7143
▁Talk	-11.7144
▁قبل	-11.7146
ог	-11.7147
bag	-11.7149
posted	-11.7151
ား	-11.7152
▁{	-11.7153
符合题意	-11.7154
▁repeat	-11.7155
▁driven	-11.7156
重要的	-11.7156
guin	-11.7157
事实	-11.7157
شا	-11.7157
linux	-11.7159
sink	-11.716
ந்த	-11.716
▁Lou	-11.716
security	-11.7161
▁Bru	-11.7162
ark	-11.7163
干净	-11.7163
快浆	-11.7164
如有	-11.7165
may	-11.7165
天津	-11.7168
حم	-11.7168
Rule	-11.7168
NL	-11.7168
issue	-11.7169
发育	-11.717
▁Challenge	-11.717
▁guidelines	-11.717
grav	-11.7173
▁Ker	-11.7173
▁western	-11.7173
联盟	-11.7174
▁peut	-11.7174
就要	-11.7174
▁ill	-11.7174
zip	-11.7174
逃	-11.7175
▁Arthur	-11.7176
дов	-11.7176
复杂	-11.7177
为您	-11.7177
▁trick	-11.7179
▁Cent	-11.7179
али	-11.718
YA	-11.7181
thy	-11.7184
的变化	-11.7184
loss	-11.7185
▁interviews	-11.7187
 °	-11.7187
规格	-11.7188
城区	-11.7188
成就	-11.7189
ост	-11.7189
▁hardly	-11.719
▁تقع	-11.7191
诉	-11.7191
▁Ю	-11.7192
声明	-11.7192
▁commonly	-11.7193
query	-11.7193
সা	-11.7194
▁Roll	-11.7194
▁Station	-11.7195
ီ	-11.7195
▁두	-11.7196
лан	-11.7197
▁integer	-11.7197
塑	-11.7197
▁Bud	-11.7198
▁parameter	-11.7198
cum	-11.72
唱	-11.72
fon	-11.7201
cult	-11.7201
▁Villa	-11.7202
理想	-11.7204
▁без	-11.7205
▁strip	-11.7205
gé	-11.7207
▁Vegas	-11.7208
▁sons	-11.7209
很难	-11.7209
▁covering	-11.721
](	-11.721
recht	-11.7212
▁marks	-11.7213
HR	-11.7213
dog	-11.7213
▁complaint	-11.7214
▁Authority	-11.7214
▁exposed	-11.7214
▁Zealand	-11.7217
不变	-11.7218
▁sacrifice	-11.7218
small	-11.7221
枪	-11.7221
▁segment	-11.7221
活動	-11.7221
مس	-11.7223
▁선	-11.7224
gos	-11.7224
▁район	-11.7224
▁Classic	-11.7225
▁Nation	-11.7225
权利	-11.7226
经理	-11.7227
tet	-11.7227
present	-11.7228
▁Things	-11.7229
  	-11.7229
blo	-11.7232
ule	-11.7232
番組	-11.7234
了吗	-11.7235
₂	-11.7235
▁Бе	-11.7235
▁Р	-11.7237
▁ignore	-11.7238
قة	-11.7239
chy	-11.7239
pens	-11.724
▁Mit	-11.724
▁Mur	-11.724
鼓	-11.7241
印度	-11.7241
SB	-11.7241
▁pursuant	-11.7242
encia	-11.7242
拟	-11.7242
四川	-11.7242
▁weekly	-11.7245
▁scores	-11.7246
▁Dick	-11.7246
unk	-11.7247
Vo	-11.7249
▁estat	-11.725
▁Met	-11.7252
产生的	-11.7252
von	-11.7254
力度	-11.7255
▁prominent	-11.7256
▁subsequent	-11.7256
package	-11.7261
常见的	-11.7261
static	-11.7261
endo	-11.7262
cert	-11.7264
stitu	-11.7265
监	-11.7265
▁Cou	-11.7266
标志	-11.7266
▁mem	-11.7268
▁bướm	-11.7268
Lu	-11.7269
战斗	-11.727
▁Um	-11.7271
不一样	-11.7273
▁Christopher	-11.7273
▁реки	-11.7274
▁survived	-11.7274
锋	-11.7274
広	-11.7274
▁américain	-11.7274
Top	-11.7275
▁Moon	-11.7276
ril	-11.7277
rg	-11.7277
▁Vin	-11.7278
▁aim	-11.7278
▁ownership	-11.728
arn	-11.728
▁deals	-11.728
▁criticism	-11.7283
ain	-11.7284
▁discussions	-11.7285
▁resulted	-11.7287
bes	-11.7289
▁Gr	-11.7293
▁Cambridge	-11.7294
att	-11.7294
▁stupid	-11.7295
subsection	-11.7298
变得	-11.7299
▁Reform	-11.7299
pack	-11.73
ened	-11.7301
馬	-11.7301
▁packages	-11.7303
istan	-11.7305
所有的	-11.7305
CV	-11.7306
▁quarterback	-11.7307
▁Mart	-11.7309
ப	-11.731
ند	-11.7314
Ri	-11.7315
▁careful	-11.7316
氛围	-11.7322
pon	-11.7323
Module	-11.7323
▁earnings	-11.7324
▁lessons	-11.7325
那就	-11.7325
tour	-11.7325
▁telephone	-11.7326
mıştır	-11.7326
kul	-11.7326
ounce	-11.7327
▁stuck	-11.7329
▁promotion	-11.7329
prod	-11.733
Like	-11.733
)*	-11.7331
疑	-11.7331
忙	-11.7331
隊	-11.7333
park	-11.7333
'$	-11.7334
▁graph	-11.7335
▁beliefs	-11.7335
▁नि	-11.7335
imp	-11.7335
鼓励	-11.7335
hack	-11.7336
향	-11.7337
▁representing	-11.7337
cad	-11.7337
্য	-11.7338
离开	-11.7339
电力	-11.734
▁Moreover	-11.7341
累计	-11.7342
▁đêm	-11.7342
▁god	-11.7342
cache	-11.7342
▁Ва	-11.7342
printf	-11.7343
▁studying	-11.7343
▁Gun	-11.7343
犯罪	-11.7344
▁discovery	-11.7344
▁Pel	-11.7345
▁physician	-11.7347
ид	-11.7348
лет	-11.7348
▁managing	-11.7348
▁Micro	-11.735
嘴	-11.735
▁Learning	-11.7352
▁thick	-11.7352
stre	-11.7353
▁Пи	-11.7356
оф	-11.7356
mount	-11.736
select	-11.7361
▁substance	-11.7361
▁裁	-11.7362
江苏	-11.7362
က်	-11.7363
▁whenever	-11.7363
上下	-11.7363
▁한국	-11.7366
示范	-11.7368
▁Хо	-11.7368
▁stronger	-11.7368
족	-11.7368
▁Tele	-11.737
▁파	-11.737
癫痫	-11.7371
▁implemented	-11.7371
せ	-11.7372
实验室	-11.7373
सी	-11.7374
▁amendment	-11.7376
ница	-11.7377
竞	-11.7377
放心	-11.7377
▁essay	-11.7377
ั	-11.7378
▁flood	-11.738
Max	-11.738
ign	-11.7381
PG	-11.7382
access	-11.7384
难度	-11.7385
▁Enlaces	-11.739
▁grants	-11.7391
萨	-11.7392
告诉	-11.7392
색	-11.7393
输入	-11.7393
dat	-11.7393
▁출생	-11.7393
泽	-11.7396
lk	-11.7397
留言	-11.7397
▁responded	-11.7397
游客	-11.7398
▁Rich	-11.74
▁geslacht	-11.74
NG	-11.74
▁grave	-11.7402
저	-11.7403
▁Pot	-11.7404
▁websites	-11.7405
▁север	-11.7407
ière	-11.7407
Phi	-11.7407
▁Guard	-11.7408
▁Marshall	-11.7409
вид	-11.7411
▁други	-11.7412
viv	-11.7414
▁tasks	-11.7414
▁filing	-11.7414
gang	-11.7415
TAC	-11.7415
ë	-11.7416
地图	-11.7417
でも	-11.7417
自主	-11.7418
▁Fo	-11.7419
และ	-11.7419
boot	-11.742
▁tracks	-11.742
फ	-11.742
▁representatives	-11.7421
▁Indeed	-11.7422
____	-11.7422
社会主义	-11.7423
▁odd	-11.7423
▁Carter	-11.7423
ич	-11.7424
gol	-11.7425
quir	-11.7426
मि	-11.7426
為	-11.7427
▁producing	-11.7427
xy	-11.7427
▁prize	-11.7428
▁sharp	-11.7431
▁Mir	-11.7431
န်	-11.7432
▁Ave	-11.7433
▁Interview	-11.7433
에서는	-11.7433
権	-11.7437
Property	-11.7437
▁matches	-11.7437
Any	-11.7437
▁Join	-11.7438
▁initially	-11.7439
filter	-11.744
▁defeat	-11.744
▁كانت	-11.7442
▁Dog	-11.7443
成了	-11.7443
▁reliable	-11.7444
Attribute	-11.7444
▁Barbara	-11.7445
引发	-11.7445
▁Zi	-11.7445
sson	-11.7447
スター	-11.7448
صر	-11.7448
▁Qu	-11.7449
▁lifestyle	-11.745
▁clip	-11.745
fal	-11.7451
衣服	-11.7451
yla	-11.7452
▁الوطنية	-11.7452
Back	-11.7452
ово	-11.7452
KEY	-11.7453
申请人	-11.7454
RAM	-11.7454
欢	-11.7454
还在	-11.7456
oca	-11.7457
rank	-11.7457
fat	-11.7458
mk	-11.7459
▁parish	-11.7459
الي	-11.7459
顾客	-11.746
ACT	-11.7461
棉	-11.7462
▁역사	-11.7463
court	-11.7465
cup	-11.7465
gress	-11.7466
▁Try	-11.7466
感到	-11.7467
▁од	-11.7468
ข	-11.7468
加上	-11.7469
▁scan	-11.747
▁everywhere	-11.7471
▁Buy	-11.7473
▁crucial	-11.7473
jes	-11.7476
級	-11.7476
滤	-11.7477
森林	-11.7477
MY	-11.7477
eff	-11.7478
男性	-11.7479
▁발	-11.748
▁computers	-11.7481
iki	-11.7482
▁diabetes	-11.7484
▁instrument	-11.7485
เ	-11.7488
地位	-11.7491
▁Content	-11.7493
cycle	-11.7493
接下来	-11.7496
▁pela	-11.7496
Inter	-11.7497
Operation	-11.7497
oso	-11.7498
▁Tue	-11.7499
美食	-11.7499
▁장	-11.7501
full	-11.7502
免费维修	-11.7502
нос	-11.7502
prov	-11.7502
▁concluded	-11.7503
Right	-11.7505
▁divided	-11.7506
▁Theater	-11.7508
▁integrated	-11.7508
萌	-11.7508
sci	-11.7509
▁Oil	-11.7509
تها	-11.7509
不良	-11.751
御	-11.7512
corn	-11.7513
▁bull	-11.7515
变成	-11.7515
▁citizen	-11.7516
▁Биография	-11.7517
▁attending	-11.7519
▁فلكية	-11.7519
AND	-11.752
食用	-11.752
werk	-11.752
گ	-11.752
tical	-11.752
(*	-11.7521
▁Bishop	-11.7524
deki	-11.7525
▁Schools	-11.7527
ifying	-11.7528
ън	-11.7529
▁suitable	-11.7529
▁coaches	-11.753
क्	-11.7532
aris	-11.7532
intens	-11.7532
hot	-11.7533
fol	-11.7533
梦想	-11.7536
▁filter	-11.7537
ann	-11.7537
iji	-11.7538
cock	-11.7538
体内	-11.7538
rap	-11.7538
脂	-11.7541
▁MA	-11.7541
вин	-11.7542
▁universal	-11.7543
хан	-11.7545
▁خلال	-11.7546
テレビ	-11.755
#(	-11.7551
Next	-11.7551
っている	-11.7552
公布	-11.7552
▁Corps	-11.7552
▁destroyed	-11.7553
▁sixth	-11.7553
良好	-11.7553
▁Wright	-11.7554
▁wage	-11.7555
▁stations	-11.7556
▁expanded	-11.7556
▁engagement	-11.7557
＝	-11.7557
晶	-11.7559
sig	-11.7561
OM	-11.7561
调研	-11.7563
继	-11.7564
wal	-11.7564
AU	-11.7565
ланд	-11.7566
▁Dark	-11.7566
erci	-11.7567
▁finger	-11.7567
沿	-11.7568
১	-11.7569
内的	-11.7569
لة	-11.757
▁comedy	-11.7571
注重	-11.7572
▁iron	-11.7573
門	-11.7573
▁ending	-11.7575
出身の人物	-11.7577
▁participating	-11.7577
▁literally	-11.7577
tail	-11.7578
ဝ	-11.7578
▁Nach	-11.7578
ExpressionUUID	-11.7578
CG	-11.758
▁Battle	-11.7581
▁dress	-11.7581
▁Meeting	-11.7583
들이	-11.7585
长时间	-11.7585
بان	-11.7586
▁Alt	-11.7586
▁FC	-11.7586
身上	-11.7587
▁Intel	-11.7587
▁два	-11.7588
itter	-11.7588
▁الدو	-11.7589
tia	-11.7589
▁tip	-11.7592
▁externe	-11.7594
▁bowl	-11.7595
败	-11.7595
Arg	-11.7596
▁hij	-11.7596
pala	-11.7597
▁rel	-11.7597
▁wireless	-11.7598
▁consecutive	-11.7599
green	-11.7602
的质量	-11.7604
▁يقع	-11.7606
▁Nar	-11.7607
▁gear	-11.7607
视频嘛	-11.761
python	-11.761
▁loving	-11.7611
하게	-11.7612
▁routine	-11.7612
这边帮您看看具体什么情况的呢	-11.7613
bottom	-11.7613
品种	-11.7614
XKQG	-11.7614
为您服务是我们的荣幸	-11.7616
sdTU	-11.7616
▁clothes	-11.7618
▁Sound	-11.7618
客服小妹看下呢	-11.7619
小客服帮您看下呢	-11.7619
▁resist	-11.7619
anim	-11.762
образ	-11.7621
性和	-11.7622
▁Stein	-11.7622
yen	-11.7622
▁scholarship	-11.7623
谢谢哦	-11.7623
▁بلغ	-11.7623
WEITERLEITUNG	-11.7624
生存	-11.7624
endif	-11.7625
▁Hamilton	-11.7626
尊重	-11.7629
休闲	-11.7629
family	-11.7631
sse	-11.7631
▁Adams	-11.7632
▁ذلك	-11.7632
视觉	-11.7633
▁squad	-11.7635
全市	-11.7636
μ	-11.7637
":"【	-11.7637
يه	-11.7638
ologi	-11.7638
▁armed	-11.7639
глав	-11.7639
氧气	-11.7639
灵活	-11.7639
才是	-11.7639
Il	-11.7641
灭	-11.7641
▁مدن	-11.7641
石油	-11.7642
zin	-11.7642
▁Publication	-11.7643
ERS	-11.7644
كان	-11.7645
cion	-11.7646
الد	-11.7647
atom	-11.7647
フェ	-11.7648
ु	-11.7649
终于	-11.7653
▁altres	-11.7653
oro	-11.7654
▁Log	-11.7656
▁math	-11.7656
提交	-11.7656
觉	-11.7657
aï	-11.7657
▁electricity	-11.7658
▁matrix	-11.7659
更好	-11.766
▁dont	-11.766
NOT	-11.7661
sche	-11.7664
腾	-11.7664
▁Justin	-11.7665
▁bills	-11.7666
TER	-11.7666
▁dad	-11.7671
适用	-11.7673
▁deficit	-11.7673
▁Youth	-11.7674
pun	-11.7675
tions	-11.7676
▁instruction	-11.7676
舒适	-11.7677
妹	-11.7677
Method	-11.768
▁Franklin	-11.768
rest	-11.768
▁expense	-11.7681
▁usage	-11.7682
Les	-11.7684
zon	-11.7685
呈现	-11.7687
▁일본	-11.7688
后来	-11.7688
评估	-11.769
Kind	-11.769
bah	-11.769
▁Short	-11.769
▁loose	-11.7693
▁Brad	-11.7694
cant	-11.7694
柔	-11.7696
▁doors	-11.7696
可以用	-11.7697
姜	-11.7697
Resource	-11.7699
▁Kil	-11.7699
قص	-11.77
▁Kas	-11.7702
▁execution	-11.7703
км	-11.7703
负担	-11.7703
▁Est	-11.7704
او	-11.7705
vari	-11.7706
লা	-11.7706
pas	-11.7707
▁+=	-11.7708
결	-11.7709
▁flowers	-11.7709
▁stem	-11.771
并没有	-11.7711
▁regulatory	-11.7712
▁creates	-11.7712
累	-11.7713
тов	-11.7713
ART	-11.7713
▁Chair	-11.7713
▁Douglas	-11.7715
奶茶	-11.7716
▁certificate	-11.7716
▁قرى	-11.7717
担当	-11.7717
spor	-11.7717
omo	-11.7718
لب	-11.7718
思维	-11.7718
宿	-11.7722
▁abroad	-11.7723
▁vor	-11.7723
融资	-11.7724
▁مت	-11.7724
":"#	-11.7724
loop	-11.7724
었다	-11.7727
ove	-11.7727
▁Chamber	-11.7727
إ	-11.7728
டு	-11.7728
▁rear	-11.7729
々	-11.7729
▁Та	-11.773
一定的	-11.7731
prim	-11.7732
istes	-11.7732
▁HD	-11.7734
ít	-11.7734
ация	-11.7735
▁trail	-11.7738
▁Gordon	-11.7739
DJ	-11.774
бел	-11.7741
Screen	-11.7742
▁industries	-11.7742
phan	-11.7742
▁addresses	-11.7743
▁harder	-11.7743
铺	-11.7744
▁samples	-11.7744
вет	-11.7744
Zr	-11.7745
原创	-11.7747
Version	-11.7747
▁bool	-11.7748
GI	-11.7749
▁king	-11.7749
▁Captain	-11.7749
丸	-11.7751
▁argued	-11.7753
▁viewed	-11.7754
每一	-11.7754
至少	-11.7755
各地	-11.7756
▁stored	-11.7757
种子	-11.7757
eria	-11.7757
श्	-11.7757
▁pla	-11.776
⑤	-11.7761
▁Personal	-11.7761
▁rapid	-11.7762
▁Fre	-11.7763
زا	-11.7763
Har	-11.7765
순	-11.7765
密封	-11.7766
▁"]"}],	-11.7767
和平	-11.7769
熊	-11.777
▁России	-11.7772
lli	-11.7773
ကျေးရွာအုပ်စု	-11.7774
iment	-11.7774
温暖	-11.7775
shape	-11.7776
▁Nature	-11.7776
▁rapidly	-11.7778
▁Larry	-11.7779
▁desired	-11.7779
Manager	-11.7779
▁Norman	-11.778
▁Communications	-11.7782
护理	-11.7782
씨	-11.7782
proc	-11.7785
▁Mol	-11.7785
▁FBI	-11.7786
▁Jonathan	-11.7786
记忆	-11.7787
▁Language	-11.7787
▁democracy	-11.7787
▁Hell	-11.7788
▁screening	-11.7788
erg	-11.7789
液体	-11.7789
▁applies	-11.7789
▁liability	-11.7791
昨天	-11.7791
描述	-11.7791
企业的	-11.7791
▁demonstrate	-11.7792
▁probability	-11.7792
▁Teil	-11.7792
临床	-11.7795
бер	-11.7798
将在	-11.7799
▁Ia	-11.78
android	-11.78
▁employers	-11.7802
▁saving	-11.7802
观看	-11.7804
色彩	-11.7804
gues	-11.7805
يك	-11.7806
pound	-11.7806
巡	-11.7807
zig	-11.7809
▁indicates	-11.781
▁VI	-11.781
던	-11.7811
second	-11.7811
very	-11.7811
▁его	-11.7812
▁Tam	-11.7813
▁hoa	-11.7813
▁Wayne	-11.7813
Da	-11.7814
▁responses	-11.7814
▁나	-11.7815
lick	-11.7816
NR	-11.7816
▁destroy	-11.7817
▁Donald	-11.7818
机器人	-11.7818
▁grace	-11.7819
HD	-11.7819
▁lifetime	-11.7819
tex	-11.7821
▁assists	-11.7821
림	-11.7821
于是	-11.7823
▁Remember	-11.7825
▁Су	-11.7825
奖励	-11.7825
▁speaker	-11.7827
浩	-11.7827
▁meng	-11.7828
ils	-11.7829
挑	-11.783
ав	-11.7831
▁OK	-11.7832
LOG	-11.7833
▁Ö	-11.7833
ските	-11.7834
▁spaces	-11.7834
tür	-11.7834
最多	-11.7835
平安	-11.7835
▁signing	-11.7836
pha	-11.7839
connect	-11.784
▁Meanwhile	-11.784
franc	-11.784
▁modified	-11.7841
ambi	-11.7841
Session	-11.7845
▁lucky	-11.7845
▁scenes	-11.7847
▁improvements	-11.7849
Display	-11.785
▁Stewart	-11.785
ү	-11.7851
처	-11.7851
最低	-11.7852
▁unemployment	-11.7852
▁completion	-11.7854
San	-11.7856
лер	-11.7857
差异	-11.7858
فن	-11.7859
$-	-11.7859
▁Maine	-11.786
結	-11.786
ivo	-11.7862
思考	-11.7862
人士	-11.7863
▁breaking	-11.7866
raw	-11.7867
ブル	-11.7868
ট	-11.7868
到达	-11.7871
での	-11.7871
Free	-11.7872
それ	-11.7872
涉	-11.7873
讲解	-11.7874
人の	-11.7877
日前	-11.7877
ستان	-11.7878
nz	-11.7878
miştir	-11.7878
▁revolution	-11.7878
대학교	-11.7879
孩子的	-11.7879
▁Want	-11.788
▁epi	-11.788
纤维	-11.788
window	-11.7881
yle	-11.7881
的吗	-11.7881
▁guns	-11.7881
▁والم	-11.7882
TB	-11.7883
xx	-11.7883
▁Parliament	-11.7883
▁Altri	-11.7884
mt	-11.7885
▁cinema	-11.7886
ving	-11.7886
▁Baker	-11.7887
ening	-11.7887
▁zijn	-11.7887
▁Historical	-11.7888
▁clock	-11.7888
陵	-11.7889
▁acknowledge	-11.7889
▁resolve	-11.7891
약	-11.7891
comp	-11.7891
燕	-11.7891
連	-11.7892
构建	-11.7892
候	-11.7893
調	-11.7894
shirt	-11.7894
▁وم	-11.7895
عمال	-11.7896
hab	-11.7897
document	-11.7897
being	-11.7898
通道	-11.79
▁Disease	-11.79
WW	-11.7901
typ	-11.7901
化工	-11.7903
▁difficulty	-11.7905
▁primera	-11.7905
۱	-11.7906
▁المركز	-11.7907
▁suicide	-11.7908
▁conservation	-11.7911
考察	-11.7911
感情	-11.7912
▁Steven	-11.7913
▁منطقة	-11.7915
捕	-11.7915
▁secondary	-11.7916
等级	-11.7917
dol	-11.7918
▁переписи	-11.792
释放	-11.792
▁distrito	-11.7921
公安	-11.7922
▁lemma	-11.7922
▁Beck	-11.7923
▁connections	-11.7925
▁settled	-11.7925
Package	-11.7926
明星	-11.7927
方程	-11.7928
斤	-11.7928
▁Speaker	-11.7929
输出	-11.7929
▁Bou	-11.7929
▁stayed	-11.7929
▁Girl	-11.7929
▁commit	-11.7932
▁Louisiana	-11.7933
论坛	-11.7934
CON	-11.7936
▁depression	-11.7936
角度	-11.7937
还会	-11.7938
profile	-11.7938
сер	-11.7939
收藏	-11.7939
▁memories	-11.794
▁hitting	-11.7942
▁volunteers	-11.7944
جد	-11.7945
▁emphasis	-11.7945
蛋	-11.7947
▁किया	-11.795
▁става	-11.7952
▁Yankees	-11.7953
爱情	-11.7953
▁receiver	-11.7954
▁colour	-11.7955
一线	-11.7956
cp	-11.7956
用来	-11.7956
rator	-11.7956
晒	-11.7957
FR	-11.7957
舞台	-11.7957
▁directors	-11.7958
▁undergraduate	-11.7958
▁node	-11.7958
▁Bot	-11.7959
uw	-11.7959
▁Charlotte	-11.7959
건	-11.796
}}$	-11.796
▁Originally	-11.7961
大众	-11.7964
কে	-11.7965
ент	-11.7967
ws	-11.7967
嗯	-11.7967
巻	-11.797
än	-11.7971
ヘ	-11.7971
▁yaz	-11.7971
舍	-11.7972
▁convention	-11.7974
▁thinks	-11.7974
сан	-11.7975
周围	-11.7976
▁refuse	-11.7976
وی	-11.7978
様	-11.7978
standing	-11.7979
▁printed	-11.7979
▁pump	-11.798
Leg	-11.7981
▁restore	-11.7981
▁Samuel	-11.7981
▁complicated	-11.7982
少年	-11.7982
食谱	-11.7983
▁SE	-11.7984
坡	-11.7986
新增	-11.7987
壮	-11.7988
emb	-11.799
▁organic	-11.7991
tung	-11.7991
▁delete	-11.7993
Then	-11.7994
भा	-11.7996
▁resistance	-11.7997
较大	-11.7998
▁hosted	-11.7998
▁ordinary	-11.7999
▁``	-11.7999
QQ	-11.8
▁Wind	-11.8
▁YouTube	-11.8002
▁dr	-11.8003
pod	-11.8003
▁infection	-11.8003
tick	-11.8005
▁resume	-11.8006
催	-11.8007
손	-11.8007
polis	-11.8009
▁Euro	-11.8009
营造	-11.8014
DIS	-11.8015
report	-11.8017
▁Съ	-11.8017
▁inner	-11.8018
▁puts	-11.8018
▁languages	-11.8019
牧	-11.8019
Eg	-11.8019
寻找	-11.802
ester	-11.802
BM	-11.8021
▁Text	-11.8021
统	-11.8021
▁tra	-11.8022
▁machines	-11.8024
closure	-11.8026
协	-11.8027
▁tired	-11.8027
韩国	-11.8028
给你	-11.8028
操	-11.8029
なかった	-11.803
▁Philip	-11.8031
认	-11.8031
▁Years	-11.8032
▁Kin	-11.8033
tang	-11.8034
区人民法院	-11.8034
ヌ	-11.8035
▁innings	-11.8036
にある	-11.8037
ere	-11.8038
▁portfolio	-11.8038
nih	-11.804
眼睛	-11.804
即使	-11.8041
Use	-11.8041
मे	-11.8042
rr	-11.8044
▁theater	-11.8044
▁Additionally	-11.8045
曼	-11.8045
album	-11.8046
FB	-11.8046
▁listing	-11.8047
电商	-11.8048
黑色	-11.8048
▁gross	-11.8049
nas	-11.8049
▁Qui	-11.8051
約	-11.8051
bay	-11.8052
▁pitch	-11.8053
▁intense	-11.8053
bou	-11.8053
record	-11.8055
学员	-11.8055
明天	-11.8056
apt	-11.806
▁cluster	-11.806
很好的	-11.806
englisch	-11.806
屏幕	-11.806
၂	-11.8061
LOGIC	-11.8061
▁discrimination	-11.8063
如果是	-11.8063
科技有限公司	-11.8064
所在	-11.8067
▁Very	-11.8067
anne	-11.8068
HTML	-11.8069
애	-11.807
▁خ	-11.807
大气	-11.807
▁Android	-11.8071
ニー	-11.8073
普遍	-11.8073
두	-11.8074
ores	-11.8076
េ	-11.8077
ismo	-11.8077
دور	-11.8079
él	-11.808
▁Selatan	-11.8081
cases	-11.8081
懂	-11.8081
▁Kol	-11.8081
ması	-11.8082
颗粒	-11.8082
摇	-11.8082
▁municipal	-11.8083
超级	-11.8083
▁Welcome	-11.8084
氢	-11.8086
産	-11.8086
tl	-11.8086
쓰	-11.8088
监控	-11.8089
ICE	-11.8089
▁Single	-11.8089
角色	-11.809
羽	-11.809
▁Finance	-11.8092
▁Marie	-11.8093
dh	-11.8093
▁parallel	-11.8093
kn	-11.8095
▁Several	-11.8096
bé	-11.8097
▁Kam	-11.8097
▁عبد	-11.8099
▁remarkable	-11.8099
粗	-11.8101
确实	-11.8101
lid	-11.8101
患	-11.8101
cens	-11.8102
illo	-11.8102
rama	-11.8103
▁Jahr	-11.8104
电机	-11.8104
guard	-11.8105
inus	-11.8105
Vector	-11.8106
▁작품	-11.8106
sam	-11.8106
带来的	-11.8107
▁jazz	-11.8107
ហ	-11.8108
▁pri	-11.8108
і	-11.8109
née	-11.8111
▁Buck	-11.8111
ein	-11.8112
▁churches	-11.8112
▁evaluate	-11.8113
uku	-11.8113
浓度	-11.8114
搭	-11.8116
对此	-11.8116
clock	-11.8117
Present	-11.8118
OW	-11.8118
関連項目	-11.812
胜利	-11.812
怎么样	-11.8121
▁Friends	-11.8122
策略	-11.8124
两人	-11.8125
	-11.8126
晚上	-11.8127
랑	-11.8127
▁src	-11.8127
我们将竭诚为您服务	-11.8129
|\	-11.8129
phy	-11.8129
天下	-11.813
▁pride	-11.8131
▁magic	-11.8131
▁MP	-11.8131
▁Thompson	-11.8131
肠	-11.8132
致力于	-11.8132
▁lawyers	-11.8133
berry	-11.8133
diff	-11.8134
▁recover	-11.8137
[...]
